{
  "version": "1.0",
  "truncation": null,
  "padding": null,
  "added_tokens": [
    {
      "id": 0,
      "content": "<|endoftext|>",
      "single_word": false,
      "lstrip": false,
      "rstrip": false,
      "normalized": false,
      "special": true
    }
  ],
  "normalizer": null,
  "pre_tokenizer": {
    "type": "Whitespace"
  },
  "post_processor": null,
  "decoder": null,
  "model": {
    "type": "Unigram",
    "unk_id": 0,
    "vocab": [
      [
        "<|endoftext|>",
        0.0
      ],
      [
        ".",
        -2.969167752226406
      ],
      [
        "s",
        -3.1527855893905947
      ],
      [
        ",",
        -3.236659259495797
      ],
      [
        "the",
        -3.491458439925996
      ],
      [
        "a",
        -3.601070423870338
      ],
      [
        "'",
        -3.8022544347846203
      ],
      [
        "I",
        -3.9807152744019145
      ],
      [
        "t",
        -4.050225394550088
      ],
      [
        "to",
        -4.131963911157733
      ],
      [
        "and",
        -4.225646344756987
      ],
      [
        "of",
        -4.251226917906719
      ],
      [
        "in",
        -4.370524950149754
      ],
      [
        "you",
        -4.494584238291909
      ],
      [
        "o",
        -4.511550438386902
      ],
      [
        "d",
        -4.559412086548733
      ],
      [
        "?",
        -4.587987873889022
      ],
      [
        "e",
        -4.6975901998556715
      ],
      [
        "-",
        -4.707981778990568
      ],
      [
        "it",
        -4.72103336415365
      ],
      [
        "is",
        -4.753071268876592
      ],
      [
        "n",
        -4.8109243627521945
      ],
      [
        "that",
        -4.835495994318444
      ],
      [
        "y",
        -4.978250849416558
      ],
      [
        "\"",
        -5.033362480558731
      ],
      [
        "was",
        -5.084912128427263
      ],
      [
        "on",
        -5.119258818682843
      ],
      [
        "i",
        -5.162191638419211
      ],
      [
        "ed",
        -5.19056956139236
      ],
      [
        "for",
        -5.344934464020536
      ],
      [
        "m",
        -5.366294266989465
      ],
      [
        "ing",
        -5.41565146983595
      ],
      [
        "!",
        -5.434661222506568
      ],
      [
        "he",
        -5.450920303484963
      ],
      [
        "with",
        -5.5750052037293045
      ],
      [
        "be",
        -5.617786872234037
      ],
      [
        "The",
        -5.618872126604135
      ],
      [
        "h",
        -5.628536748224773
      ],
      [
        "are",
        -5.665559367959295
      ],
      [
        "have",
        -5.713961761108727
      ],
      [
        "ly",
        -5.7340538981000435
      ],
      [
        "we",
        -5.734833797207257
      ],
      [
        "me",
        -5.751187050306742
      ],
      [
        "re",
        -5.765687047054506
      ],
      [
        "this",
        -5.766209176086447
      ],
      [
        "f",
        -5.797787665557356
      ],
      [
        "not",
        -5.819403947901762
      ],
      [
        "You",
        -5.97964391445821
      ],
      [
        "an",
        -6.000386429764813
      ],
      [
        "his",
        -6.011444517845623
      ],
      [
        "A",
        -6.01628947515778
      ],
      [
        "what",
        -6.036380835883897
      ],
      [
        "...",
        -6.037343077360788
      ],
      [
        "one",
        -6.043978903272022
      ],
      [
        "by",
        -6.071868955699895
      ],
      [
        "can",
        -6.076533716358208
      ],
      [
        "er",
        -6.081148870363284
      ],
      [
        "or",
        -6.098609444511329
      ],
      [
        "all",
        -6.112665224002905
      ],
      [
        "they",
        -6.13771004926676
      ],
      [
        "know",
        -6.14127737528486
      ],
      [
        "from",
        -6.1492188608869185
      ],
      [
        "my",
        -6.1614047864224215
      ],
      [
        "her",
        -6.174394548396183
      ],
      [
        "(",
        -6.196259103548304
      ],
      [
        "your",
        -6.212622010878405
      ],
      [
        "but",
        -6.215329569554413
      ],
      [
        "He",
        -6.21606264470862
      ],
      [
        "had",
        -6.2277769115175445
      ],
      [
        "like",
        -6.231759294132502
      ],
      [
        "there",
        -6.2410228047267395
      ],
      [
        "up",
        -6.251141961404379
      ],
      [
        "l",
        -6.273999156000553
      ],
      [
        "out",
        -6.300601684956714
      ],
      [
        "r",
        -6.309478564977635
      ],
      [
        "S",
        -6.327855899064179
      ],
      [
        "And",
        -6.3434781818859385
      ],
      [
        "him",
        -6.350236126099729
      ],
      [
        "were",
        -6.372515123080772
      ],
      [
        "about",
        -6.381482469873488
      ],
      [
        "ll",
        -6.431282246410321
      ],
      [
        "don",
        -6.438684685942535
      ],
      [
        "go",
        -6.45164179425719
      ],
      [
        "u",
        -6.4584473248331715
      ],
      [
        ")",
        -6.472046431609
      ],
      [
        ";",
        -6.491915818450135
      ],
      [
        "What",
        -6.493409534948492
      ],
      [
        "she",
        -6.4978502753297125
      ],
      [
        "just",
        -6.49875384410565
      ],
      [
        "get",
        -6.502107967790421
      ],
      [
        "here",
        -6.508497913508926
      ],
      [
        ":",
        -6.532525922113312
      ],
      [
        "c",
        -6.635558612450515
      ],
      [
        "will",
        -6.647385942815207
      ],
      [
        "right",
        -6.661121302974024
      ],
      [
        "ve",
        -6.6658728373337475
      ],
      [
        "who",
        -6.682568326158716
      ],
      [
        "time",
        -6.6896686244463
      ],
      [
        "which",
        -6.689965436904513
      ],
      [
        "them",
        -6.693782817824188
      ],
      [
        "would",
        -6.695673573549264
      ],
      [
        "has",
        -6.698408506039666
      ],
      [
        "g",
        -6.699758324858305
      ],
      [
        "No",
        -6.710222858465741
      ],
      [
        "see",
        -6.719805067460319
      ],
      [
        "think",
        -6.719833249406358
      ],
      [
        "We",
        -6.729513957881354
      ],
      [
        "when",
        -6.749203849055952
      ],
      [
        "said",
        -6.76116428261194
      ],
      [
        "=",
        -6.761553112337031
      ],
      [
        "`",
        -6.763047666116959
      ],
      [
        "now",
        -6.767337210082873
      ],
      [
        "But",
        -6.799687882723255
      ],
      [
        "So",
        -6.8314934519976
      ],
      [
        "got",
        -6.832448173409702
      ],
      [
        "been",
        -6.836539456323823
      ],
      [
        "more",
        -6.8367207143454465
      ],
      [
        "some",
        -6.8435458015063055
      ],
      [
        "us",
        -6.847742956358715
      ],
      [
        "want",
        -6.847745414381402
      ],
      [
        "Oh",
        -6.879148129458612
      ],
      [
        "T",
        -6.882721691049543
      ],
      [
        "their",
        -6.885918460350711
      ],
      [
        "Yeah",
        -6.922430648207177
      ],
      [
        "did",
        -6.924852646033724
      ],
      [
        "b",
        -6.935469621337228
      ],
      [
        "going",
        -6.936489263815572
      ],
      [
        "That",
        -6.940003845792665
      ],
      [
        "man",
        -6.942823790171156
      ],
      [
        "people",
        -6.956039463218959
      ],
      [
        "over",
        -6.972935853042346
      ],
      [
        "how",
        -6.97948662873851
      ],
      [
        "very",
        -7.0078085855614365
      ],
      [
        "back",
        -7.01801698223605
      ],
      [
        "p",
        -7.048094047952793
      ],
      [
        "two",
        -7.048368845889771
      ],
      [
        "good",
        -7.053476608505168
      ],
      [
        "other",
        -7.060206230291268
      ],
      [
        "way",
        -7.0606521629271555
      ],
      [
        "come",
        -7.070723277929186
      ],
      [
        "where",
        -7.0822249256454
      ],
      [
        "could",
        -7.0927623603195045
      ],
      [
        "our",
        -7.096833892652395
      ],
      [
        "This",
        -7.0987187820537905
      ],
      [
        "first",
        -7.11514212294243
      ],
      [
        "They",
        -7.117342696014521
      ],
      [
        "down",
        -7.123026434686574
      ],
      [
        "--",
        -7.123770251540934
      ],
      [
        "well",
        -7.125691474061506
      ],
      [
        "Well",
        -7.141444738356139
      ],
      [
        "She",
        -7.152061540205381
      ],
      [
        "say",
        -7.158692599065958
      ],
      [
        "also",
        -7.159733431964634
      ],
      [
        "M",
        -7.208212536745618
      ],
      [
        "little",
        -7.248185515532542
      ],
      [
        "1",
        -7.257829945978598
      ],
      [
        "only",
        -7.26008315119746
      ],
      [
        "take",
        -7.262418838997341
      ],
      [
        "any",
        -7.274286289928263
      ],
      [
        "C",
        -7.286323616447174
      ],
      [
        "make",
        -7.301897851845256
      ],
      [
        "because",
        -7.305453579636071
      ],
      [
        "]",
        -7.336033711093208
      ],
      [
        "[",
        -7.336952359722902
      ],
      [
        "k",
        -7.35018529638684
      ],
      [
        "than",
        -7.353949902024713
      ],
      [
        "look",
        -7.3639214797253505
      ],
      [
        "let",
        -7.364278100142352
      ],
      [
        "B",
        -7.378487980602969
      ],
      [
        "put",
        -7.38406761236784
      ],
      [
        "ies",
        -7.384750519116496
      ],
      [
        "really",
        -7.3886954146058645
      ],
      [
        "w",
        -7.393025671957169
      ],
      [
        "There",
        -7.398513581691207
      ],
      [
        "into",
        -7.40377089882722
      ],
      [
        "2",
        -7.422784725264293
      ],
      [
        "Yes",
        -7.431318762491351
      ],
      [
        "ever",
        -7.434734617526727
      ],
      [
        "day",
        -7.440378144481976
      ],
      [
        "these",
        -7.440939712962978
      ],
      [
        "need",
        -7.447695378070167
      ],
      [
        "after",
        -7.4596451228083485
      ],
      [
        "much",
        -7.460861340569256
      ],
      [
        "off",
        -7.469016240199691
      ],
      [
        "E",
        -7.47435784563965
      ],
      [
        "something",
        -7.481251190088441
      ],
      [
        "P",
        -7.481483080392955
      ],
      [
        "How",
        -7.488110612153747
      ],
      [
        "D",
        -7.492416182890944
      ],
      [
        "mean",
        -7.503366926955366
      ],
      [
        "gonna",
        -7.507576579504542
      ],
      [
        "made",
        -7.513227222550128
      ],
      [
        "should",
        -7.516173651794713
      ],
      [
        "tell",
        -7.516523727667353
      ],
      [
        "thing",
        -7.536076159870808
      ],
      [
        "work",
        -7.5376156335104465
      ],
      [
        "H",
        -7.548195170303691
      ],
      [
        "_",
        -7.562192550448939
      ],
      [
        "name",
        -7.563287542364195
      ],
      [
        "al",
        -7.569090062829812
      ],
      [
        "3",
        -7.589888339293816
      ],
      [
        "before",
        -7.5907415221977
      ],
      [
        "never",
        -7.611395624397279
      ],
      [
        "again",
        -7.619857918417937
      ],
      [
        "didn",
        -7.6285851434391425
      ],
      [
        "th",
        -7.6340454663435136
      ],
      [
        "part",
        -7.634555231305017
      ],
      [
        "even",
        -7.641001189337047
      ],
      [
        "life",
        -7.6464129339950855
      ],
      [
        "most",
        -7.651470259295383
      ],
      [
        "5",
        -7.664685599686424
      ],
      [
        "through",
        -7.6772193138716425
      ],
      [
        "many",
        -7.678602988928738
      ],
      [
        "okay",
        -7.680591646045638
      ],
      [
        "long",
        -7.685579871482183
      ],
      [
        "old",
        -7.691940513835977
      ],
      [
        "“",
        -7.694247503516378
      ],
      [
        "4",
        -7.696981431050158
      ],
      [
        "R",
        -7.70585896175192
      ],
      [
        "N",
        -7.710461547231528
      ],
      [
        "years",
        -7.712740637003533
      ],
      [
        "those",
        -7.721076285133963
      ],
      [
        "new",
        -7.721683356891647
      ],
      [
        "still",
        -7.722399251166468
      ],
      [
        "three",
        -7.727075261076779
      ],
      [
        "6",
        -7.73339457321347
      ],
      [
        "great",
        -7.733933121138257
      ],
      [
        "place",
        -7.736047446218622
      ],
      [
        "thought",
        -7.739511731894037
      ],
      [
        "called",
        -7.748123149306338
      ],
      [
        "went",
        -7.755737445255507
      ],
      [
        "came",
        -7.760836919006133
      ],
      [
        "O",
        -7.763130615212281
      ],
      [
        "last",
        -7.766921179579777
      ],
      [
        "yeah",
        -7.774785432150379
      ],
      [
        "W",
        -7.7749710195522574
      ],
      [
        "used",
        -7.778579076634131
      ],
      [
        "things",
        -7.781711256726428
      ],
      [
        "give",
        -7.7843374148714854
      ],
      [
        "20",
        -7.786230849687277
      ],
      [
        "home",
        -7.789412140006535
      ],
      [
        "G",
        -7.792821729520181
      ],
      [
        "Do",
        -7.794087768777356
      ],
      [
        "love",
        -7.794996533986744
      ],
      [
        "away",
        -7.796885353052998
      ],
      [
        "help",
        -7.799843422339306
      ],
      [
        "must",
        -7.800136791068887
      ],
      [
        "doing",
        -7.8028765113169545
      ],
      [
        "Now",
        -7.804571555186817
      ],
      [
        "Why",
        -7.80486960696676
      ],
      [
        "night",
        -7.815524787257647
      ],
      [
        "being",
        -7.844176532306376
      ],
      [
        "such",
        -7.856261249855578
      ],
      [
        "All",
        -7.857611247903117
      ],
      [
        "may",
        -7.866417723956005
      ],
      [
        "why",
        -7.87036614540183
      ],
      [
        "When",
        -7.873887745210391
      ],
      [
        "find",
        -7.881110354424221
      ],
      [
        "F",
        -7.882917741578288
      ],
      [
        "19",
        -7.8851806302751175
      ],
      [
        "house",
        -7.889419206178092
      ],
      [
        "own",
        -7.901632310051692
      ],
      [
        "same",
        -7.902084622906216
      ],
      [
        "kind",
        -7.912284461582489
      ],
      [
        "7",
        -7.922727002516904
      ],
      [
        "men",
        -7.9271462204333485
      ],
      [
        "under",
        -7.930832805959362
      ],
      [
        "won",
        -7.93611656435173
      ],
      [
        "Don",
        -7.937695043670239
      ],
      [
        "U",
        -7.94083796210492
      ],
      [
        "lot",
        -7.9420025373801195
      ],
      [
        "L",
        -7.94394736197167
      ],
      [
        "Mr",
        -7.945800043290204
      ],
      [
        "use",
        -7.947609837642091
      ],
      [
        "does",
        -7.94800466511081
      ],
      [
        "end",
        -7.951527124372301
      ],
      [
        "world",
        -7.955497789432648
      ],
      [
        "v",
        -7.956130815989015
      ],
      [
        "Come",
        -7.95899271866122
      ],
      [
        "found",
        -7.960263449167476
      ],
      [
        "Let",
        -7.9618611318740555
      ],
      [
        "talk",
        -7.96689912281758
      ],
      [
        "might",
        -7.968433251448085
      ],
      [
        "able",
        -7.9720298504209115
      ],
      [
        "year",
        -7.9765812649824515
      ],
      [
        "My",
        -8.003497848747676
      ],
      [
        "200",
        -8.02389544356499
      ],
      [
        "around",
        -8.02670427999198
      ],
      [
        "show",
        -8.028188093531755
      ],
      [
        "K",
        -8.02901927574988
      ],
      [
        "call",
        -8.037454978558634
      ],
      [
        "sure",
        -8.040040715674696
      ],
      [
        "Okay",
        -8.043654130445715
      ],
      [
        "another",
        -8.043715564724401
      ],
      [
        "always",
        -8.052907773156235
      ],
      [
        "side",
        -8.062362238500002
      ],
      [
        "&",
        -8.064538239690922
      ],
      [
        "left",
        -8.07454776607257
      ],
      [
        "land",
        -8.088132062771002
      ],
      [
        "better",
        -8.091996348567637
      ],
      [
        "while",
        -8.092235818121011
      ],
      [
        "money",
        -8.094837267445936
      ],
      [
        "–",
        -8.095888096224982
      ],
      [
        "car",
        -8.097047152322347
      ],
      [
        "United",
        -8.099131066228649
      ],
      [
        "anything",
        -8.101299767434229
      ],
      [
        "water",
        -8.102658248734503
      ],
      [
        "Hey",
        -8.10697820711154
      ],
      [
        "erm",
        -8.115421880773008
      ],
      [
        "born",
        -8.122125705063652
      ],
      [
        "head",
        -8.122416375601233
      ],
      [
        "different",
        -8.123299303257948
      ],
      [
        "amp",
        -8.125008299223698
      ],
      [
        "change",
        -8.126101329299132
      ],
      [
        "live",
        -8.13229257093121
      ],
      [
        "between",
        -8.137125446101976
      ],
      [
        "city",
        -8.141512241207568
      ],
      [
        "|",
        -8.141704389256976
      ],
      [
        "New",
        -8.142214070699891
      ],
      [
        "keep",
        -8.144626992165378
      ],
      [
        "girl",
        -8.145094403553715
      ],
      [
        "every",
        -8.14522723065555
      ],
      [
        "big",
        -8.148488530270505
      ],
      [
        "told",
        -8.15596915620014
      ],
      [
        "For",
        -8.157981773823389
      ],
      [
        "God",
        -8.166498193796329
      ],
      [
        "Then",
        -8.177875452871772
      ],
      [
        "8",
        -8.178765679793692
      ],
      [
        "known",
        -8.180242466241936
      ],
      [
        "American",
        -8.180926433165295
      ],
      [
        "took",
        -8.189547890320027
      ],
      [
        "course",
        -8.19752519219985
      ],
      [
        "point",
        -8.206204918919868
      ],
      [
        "Who",
        -8.215598196417954
      ],
      [
        "♪",
        -8.216988287329078
      ],
      [
        "ar",
        -8.222874801654383
      ],
      [
        "’",
        -8.225920017386086
      ],
      [
        "Where",
        -8.228044552474723
      ],
      [
        "each",
        -8.232715383478602
      ],
      [
        "ic",
        -8.234217071128489
      ],
      [
        "play",
        -8.237756503495202
      ],
      [
        "States",
        -8.239424315101235
      ],
      [
        "um",
        -8.240366950853796
      ],
      [
        "second",
        -8.248088082379454
      ],
      [
        "high",
        -8.248480841737662
      ],
      [
        "number",
        -8.24965323055082
      ],
      [
        "open",
        -8.24977565888235
      ],
      [
        "both",
        -8.251308884700478
      ],
      [
        "saw",
        -8.251610949721917
      ],
      [
        "On",
        -8.251902199990587
      ],
      [
        "next",
        -8.25393427084356
      ],
      [
        "nothing",
        -8.264547996733144
      ],
      [
        "done",
        -8.272772710474998
      ],
      [
        "Just",
        -8.280031248715629
      ],
      [
        "start",
        -8.280831147651089
      ],
      [
        "four",
        -8.28827228771538
      ],
      [
        "until",
        -8.290837586599533
      ],
      [
        "school",
        -8.291142996511788
      ],
      [
        "bit",
        -8.291897141238469
      ],
      [
        "father",
        -8.296679461092266
      ],
      [
        "move",
        -8.306786831447075
      ],
      [
        "best",
        -8.307945255011463
      ],
      [
        "feel",
        -8.310773267287876
      ],
      [
        "less",
        -8.312698218635516
      ],
      [
        "Go",
        -8.313590374401784
      ],
      [
        "actually",
        -8.316741683150696
      ],
      [
        "ness",
        -8.319408248771326
      ],
      [
        "Y",
        -8.321938690959001
      ],
      [
        "age",
        -8.32355438280015
      ],
      [
        "Are",
        -8.324339381352537
      ],
      [
        "later",
        -8.325601794869385
      ],
      [
        "18",
        -8.32623916046877
      ],
      [
        "small",
        -8.331107746465998
      ],
      [
        "once",
        -8.332326275717879
      ],
      [
        "yes",
        -8.333210156121881
      ],
      [
        "nough",
        -8.335675316405306
      ],
      [
        "room",
        -8.336499679241228
      ],
      [
        "9",
        -8.336851057282187
      ],
      [
        "line",
        -8.34368679261746
      ],
      [
        "doesn",
        -8.351257486950724
      ],
      [
        "hard",
        -8.351848669200018
      ],
      [
        "mother",
        -8.352866253882139
      ],
      [
        "case",
        -8.354124889374992
      ],
      [
        "together",
        -8.356022847682526
      ],
      [
        "Look",
        -8.361978055767656
      ],
      [
        "One",
        -8.364281854230486
      ],
      [
        "else",
        -8.372075997103204
      ],
      [
        "state",
        -8.372346673781145
      ],
      [
        "family",
        -8.381500170656594
      ],
      [
        "against",
        -8.38513560927645
      ],
      [
        "),",
        -8.388225428363361
      ],
      [
        "Thank",
        -8.395860350430809
      ],
      [
        "wanted",
        -8.398595935485051
      ],
      [
        "order",
        -8.406528679989579
      ],
      [
        "problem",
        -8.408564653183177
      ],
      [
        "bad",
        -8.409774811084807
      ],
      [
        ").",
        -8.416117495952255
      ],
      [
        "Good",
        -8.416635278408513
      ],
      [
        "five",
        -8.419098226386208
      ],
      [
        "care",
        -8.419919977249098
      ],
      [
        "believe",
        -8.420499384720848
      ],
      [
        "book",
        -8.420715402981864
      ],
      [
        "coming",
        -8.421438175402796
      ],
      [
        "15",
        -8.422243826665403
      ],
      [
        "few",
        -8.422485416285092
      ],
      [
        "became",
        -8.422796646646733
      ],
      [
        "face",
        -8.42564855776921
      ],
      [
        "looking",
        -8.425887658229675
      ],
      [
        "town",
        -8.4287402256121
      ],
      [
        "everything",
        -8.42888042025022
      ],
      [
        "try",
        -8.433302473156251
      ],
      [
        "minute",
        -8.434238165116202
      ],
      [
        "self",
        -8.43533721406096
      ],
      [
        "Can",
        -8.437633604997034
      ],
      [
        "Not",
        -8.442125411568956
      ],
      [
        "far",
        -8.444540762568964
      ],
      [
        "leave",
        -8.44622885070122
      ],
      [
        "quite",
        -8.447034670307351
      ],
      [
        "stay",
        -8.450169465601356
      ],
      [
        "since",
        -8.450726180747191
      ],
      [
        "person",
        -8.452343770875506
      ],
      [
        "J",
        -8.452655449815994
      ],
      [
        "light",
        -8.455010571576961
      ],
      [
        "died",
        -8.456440759993228
      ],
      [
        "/",
        -8.456825572526585
      ],
      [
        "seen",
        -8.457229744371114
      ],
      [
        "ask",
        -8.45746665904306
      ],
      [
        "sorry",
        -8.460593617434307
      ],
      [
        "without",
        -8.464908538037875
      ],
      [
        "though",
        -8.470056984793304
      ],
      [
        "V",
        -8.471784586346168
      ],
      [
        "His",
        -8.477185705609575
      ],
      [
        "z",
        -8.47826680772285
      ],
      [
        "mind",
        -8.481494701939285
      ],
      [
        "Right",
        -8.482269119447896
      ],
      [
        "10",
        -8.484920331700014
      ],
      [
        "during",
        -8.489383739572895
      ],
      [
        "war",
        -8.492968595116265
      ],
      [
        "sir",
        -8.496194042369426
      ],
      [
        "whole",
        -8.499005929614183
      ],
      [
        "close",
        -8.502271924715716
      ],
      [
        "getting",
        -8.502513243147524
      ],
      [
        "boy",
        -8.50418312311414
      ],
      [
        "nice",
        -8.504183655145711
      ],
      [
        "children",
        -8.504920626087522
      ],
      [
        "please",
        -8.506296720320146
      ],
      [
        "John",
        -8.510616523447217
      ],
      [
        "x",
        -8.510678915808793
      ],
      [
        "201",
        -8.512137049023488
      ],
      [
        "happened",
        -8.514097640971187
      ],
      [
        "young",
        -8.514638636074276
      ],
      [
        "woman",
        -8.519830780792086
      ],
      [
        "friend",
        -8.522518432043846
      ],
      [
        "half",
        -8.527988696585751
      ],
      [
        "stop",
        -8.528822936386838
      ],
      [
        "Uh",
        -8.530829894174316
      ],
      [
        "real",
        -8.534942151536548
      ],
      [
        "hear",
        -8.53582632044057
      ],
      [
        "question",
        -8.535928100440655
      ],
      [
        "asked",
        -8.537057275401756
      ],
      [
        "heard",
        -8.547633936247102
      ],
      [
        "run",
        -8.54932695981174
      ],
      [
        "having",
        -8.551874761395464
      ],
      [
        "form",
        -8.556124804038635
      ],
      [
        "eyes",
        -8.556231459151757
      ],
      [
        "game",
        -8.556387414627459
      ],
      [
        "huh",
        -8.556867825406393
      ],
      [
        "*",
        -8.557831696866607
      ],
      [
        "himself",
        -8.558768508703302
      ],
      [
        "country",
        -8.55956867926901
      ],
      [
        "large",
        -8.559904350846999
      ],
      [
        "ity",
        -8.560086522525037
      ],
      [
        "group",
        -8.563734849647679
      ],
      [
        "today",
        -8.565888703685193
      ],
      [
        "morning",
        -8.56687579537337
      ],
      [
        "matter",
        -8.579428671822601
      ],
      [
        "gave",
        -8.580680675820194
      ],
      [
        "word",
        -8.582968550892033
      ],
      [
        "door",
        -8.587723270714243
      ],
      [
        "death",
        -8.589850574520277
      ],
      [
        "says",
        -8.5910984966907
      ],
      [
        "remember",
        -8.592388031866687
      ],
      [
        "16",
        -8.592944207902882
      ],
      [
        "body",
        -8.59517205015041
      ],
      [
        "important",
        -8.595226643024592
      ],
      [
        "ship",
        -8.597523718845672
      ],
      [
        "days",
        -8.601414474727612
      ],
      [
        "movie",
        -8.603522825718674
      ],
      [
        "understand",
        -8.606914292889826
      ],
      [
        "already",
        -8.614174742996664
      ],
      [
        "sort",
        -8.614176402579233
      ],
      [
        "Your",
        -8.614991672760883
      ],
      [
        "guy",
        -8.616604741513516
      ],
      [
        "Get",
        -8.61731173868564
      ],
      [
        "dead",
        -8.618006735445602
      ],
      [
        "Did",
        -8.624965844558382
      ],
      [
        "knew",
        -8.625218822227955
      ],
      [
        "full",
        -8.626845322421776
      ],
      [
        "Mm",
        -8.627210186370103
      ],
      [
        "team",
        -8.632382677451442
      ],
      [
        "After",
        -8.63268663585097
      ],
      [
        "000",
        -8.63512890381774
      ],
      [
        "wrong",
        -8.636678193315866
      ],
      [
        "late",
        -8.63762908688487
      ],
      [
        "heart",
        -8.638013495690785
      ],
      [
        "round",
        -8.639924610670095
      ],
      [
        "bring",
        -8.64227643768124
      ],
      [
        "upon",
        -8.64322915813495
      ],
      [
        "release",
        -8.646766922485977
      ],
      [
        "music",
        -8.650181193554747
      ],
      [
        "die",
        -8.65376363841514
      ],
      [
        "talking",
        -8.656859778823971
      ],
      [
        "saying",
        -8.657602706531598
      ],
      [
        "job",
        -8.659757393999943
      ],
      [
        "17",
        -8.660650021965772
      ],
      [
        "idea",
        -8.663033016281542
      ],
      [
        "began",
        -8.665886175590463
      ],
      [
        "Here",
        -8.66672570546712
      ],
      [
        "often",
        -8.667242256444027
      ],
      [
        "shall",
        -8.671462786958491
      ],
      [
        ".”",
        -8.676936749065941
      ],
      [
        "Some",
        -8.677933365801
      ],
      [
        "read",
        -8.679234627226887
      ],
      [
        "turn",
        -8.681130043984211
      ],
      [
        "moment",
        -8.685508678780668
      ],
      [
        "fire",
        -8.68563601478949
      ],
      [
        "pay",
        -8.687979668961551
      ],
      [
        "power",
        -8.688270613453495
      ],
      [
        "system",
        -8.689746979822148
      ],
      [
        "trying",
        -8.691193655761161
      ],
      [
        "wife",
        -8.691362208998823
      ],
      [
        "certain",
        -8.691721479899826
      ],
      [
        "air",
        -8.691963051580071
      ],
      [
        "started",
        -8.693213076636734
      ],
      [
        "gone",
        -8.698307545169012
      ],
      [
        "King",
        -8.711589142809675
      ],
      [
        "fact",
        -8.716140928739797
      ],
      [
        "seem",
        -8.716414836991401
      ],
      [
        "ch",
        -8.717292123324778
      ],
      [
        "ation",
        -8.718078295935856
      ],
      [
        "main",
        -8.71975506814766
      ],
      [
        "soon",
        -8.72007285886251
      ],
      [
        "per",
        -8.720507615182445
      ],
      [
        "May",
        -8.722652644999755
      ],
      [
        "wanna",
        -8.730540091207711
      ],
      [
        "Because",
        -8.740526770205445
      ],
      [
        "six",
        -8.741926340642781
      ],
      [
        "played",
        -8.756290506618441
      ],
      [
        "cause",
        -8.756341920852785
      ],
      [
        "pretty",
        -8.756735492317542
      ],
      [
        "station",
        -8.758799900784954
      ],
      [
        "making",
        -8.760680476853352
      ],
      [
        "goes",
        -8.762142805970022
      ],
      [
        "kill",
        -8.762434428209911
      ],
      [
        "wait",
        -8.762609906207272
      ],
      [
        "along",
        -8.763278063972727
      ],
      [
        "near",
        -8.765144603207897
      ],
      [
        "king",
        -8.767271455651183
      ],
      [
        "12",
        -8.772505105731895
      ],
      [
        "story",
        -8.776628200612048
      ],
      [
        "women",
        -8.777234488679813
      ],
      [
        "199",
        -8.777942814056114
      ],
      [
        "probabl",
        -8.779406288871655
      ],
      [
        "fine",
        -8.787922338202245
      ],
      [
        "walk",
        -8.788954154775531
      ],
      [
        "English",
        -8.790235688355104
      ],
      [
        "Re",
        -8.793863463024127
      ],
      [
        "hold",
        -8.793953101826498
      ],
      [
        "#",
        -8.798128667045201
      ],
      [
        "lost",
        -8.80029200760373
      ],
      [
        "top",
        -8.807177597949249
      ],
      [
        "human",
        -8.807927691718493
      ],
      [
        "short",
        -8.808584027869403
      ],
      [
        "business",
        -8.80920439436971
      ],
      [
        "means",
        -8.80922804643848
      ],
      [
        "times",
        -8.811842488931497
      ],
      [
        "week",
        -8.815649986743733
      ],
      [
        "someone",
        -8.816361744617016
      ],
      [
        "cut",
        -8.8194186344513
      ],
      [
        "true",
        -8.827714953820802
      ],
      [
        "France",
        -8.82885230556887
      ],
      [
        "ment",
        -8.833718416001942
      ],
      [
        "ready",
        -8.835115689454938
      ],
      [
        "rest",
        -8.835523135709023
      ],
      [
        "sleep",
        -8.8363092645005
      ],
      [
        "blood",
        -8.836724536876172
      ],
      [
        "drink",
        -8.84102231464218
      ],
      [
        "yourself",
        -8.84114370278982
      ],
      [
        "become",
        -8.841193062432167
      ],
      [
        "early",
        -8.842190090456782
      ],
      [
        "present",
        -8.843216868924594
      ],
      [
        "million",
        -8.845236175109232
      ],
      [
        "baby",
        -8.846575791939596
      ],
      [
        "looked",
        -8.847275163558214
      ],
      [
        "daughter",
        -8.847972246161168
      ],
      [
        "working",
        -8.849552047948329
      ],
      [
        "example",
        -8.851485461602945
      ],
      [
        "14",
        -8.853914995550724
      ],
      [
        "Please",
        -8.856616620925745
      ],
      [
        "almost",
        -8.866466362427722
      ],
      [
        "War",
        -8.86700334510697
      ],
      [
        "maybe",
        -8.870729811803912
      ],
      [
        "0",
        -8.871332948462992
      ],
      [
        "free",
        -8.879526112382285
      ],
      [
        "government",
        -8.880272790940218
      ],
      [
        "197",
        -8.880495230554546
      ],
      [
        "THE",
        -8.88081156549245
      ],
      [
        "University",
        -8.883318412251501
      ],
      [
        "These",
        -8.884134105968556
      ],
      [
        "record",
        -8.887209610863522
      ],
      [
        "ball",
        -8.888109957384373
      ],
      [
        "brother",
        -8.890756255380964
      ],
      [
        "ING",
        -8.89227991128957
      ],
      [
        "building",
        -8.893303917723067
      ],
      [
        "hat",
        -8.894749944073098
      ],
      [
        "watch",
        -8.896235594684278
      ],
      [
        "South",
        -8.89731607738771
      ],
      [
        "hope",
        -8.898758559774066
      ],
      [
        "guys",
        -8.89927740071461
      ],
      [
        "usual",
        -8.907264988726945
      ],
      [
        "term",
        -8.90789650198225
      ],
      [
        "hands",
        -8.90882231936572
      ],
      [
        "given",
        -8.90994819323991
      ],
      [
        "York",
        -8.914238064777274
      ],
      [
        "30",
        -8.914754135517477
      ],
      [
        "white",
        -8.91522663971405
      ],
      [
        "198",
        -8.917358559522008
      ],
      [
        "11",
        -8.918044443951432
      ],
      [
        "either",
        -8.920408854959533
      ],
      [
        "piece",
        -8.921115001650321
      ],
      [
        "Or",
        -8.921249615124971
      ],
      [
        "Her",
        -8.923393480874129
      ],
      [
        "killed",
        -8.92453408876026
      ],
      [
        "January",
        -8.925685600962566
      ],
      [
        "brought",
        -8.932705018623665
      ],
      [
        "service",
        -8.933720347072157
      ],
      [
        "myself",
        -8.934208760535437
      ],
      [
        "stuff",
        -8.936360290403584
      ],
      [
        "least",
        -8.93715154412759
      ],
      [
        "child",
        -8.938311261598487
      ],
      [
        "thank",
        -8.940959355368594
      ],
      [
        "food",
        -8.944382732528322
      ],
      [
        "wouldn",
        -8.953336062987649
      ],
      [
        "taking",
        -8.954753171641622
      ],
      [
        "eries",
        -8.955135434827426
      ],
      [
        "film",
        -8.964297890404975
      ],
      [
        "Al",
        -8.96484401058032
      ],
      [
        "County",
        -8.965130643316751
      ],
      [
        "words",
        -8.96673332620625
      ],
      [
        "art",
        -8.970029917184569
      ],
      [
        "taken",
        -8.970527655693296
      ],
      [
        "behind",
        -8.97178169616476
      ],
      [
        "selves",
        -8.972251892085398
      ],
      [
        "happy",
        -8.972701516498521
      ],
      [
        "front",
        -8.9738156779459
      ],
      [
        "guess",
        -8.974357266044777
      ],
      [
        "22",
        -8.975342169273024
      ],
      [
        "law",
        -8.976095644395121
      ],
      [
        "ary",
        -8.976139382995852
      ],
      [
        "red",
        -8.977803574465273
      ],
      [
        "Be",
        -8.97786304519182
      ],
      [
        "Man",
        -8.978521466938258
      ],
      [
        "language",
        -8.978559086271574
      ],
      [
        "An",
        -8.979378009787094
      ],
      [
        "married",
        -8.982409940920391
      ],
      [
        "meet",
        -8.982751434338724
      ],
      [
        "song",
        -8.98298266459155
      ],
      [
        "company",
        -8.985464002366513
      ],
      [
        "general",
        -8.989817459807353
      ],
      [
        "reason",
        -8.991381822064373
      ],
      [
        "ago",
        -8.991704606555306
      ],
      [
        "ran",
        -8.992221454606709
      ],
      [
        "paper",
        -8.992292938498062
      ],
      [
        "Hello",
        -8.992959385901749
      ],
      [
        "Hi",
        -8.993632233381518
      ],
      [
        "rather",
        -8.997760856340953
      ],
      [
        "$",
        -8.999337637029264
      ],
      [
        "ring",
        -8.999388548110309
      ],
      [
        "Mrs",
        -9.000558985008654
      ],
      [
        "several",
        -9.002706514676177
      ],
      [
        "Have",
        -9.00327551052398
      ],
      [
        "black",
        -9.003415699078106
      ],
      [
        "alone",
        -9.003610495697561
      ],
      [
        "friends",
        -9.004565436057945
      ],
      [
        "turned",
        -9.007119492533878
      ],
      [
        "sometime",
        -9.011014069453395
      ],
      [
        "With",
        -9.011090175649807
      ],
      [
        "pick",
        -9.011429224801942
      ],
      [
        "March",
        -9.013214825428925
      ],
      [
        "Of",
        -9.01387158725044
      ],
      [
        "World",
        -9.024966238523902
      ],
      [
        "sent",
        -9.025258418317087
      ],
      [
        "13",
        -9.02942830820204
      ],
      [
        "answer",
        -9.029576114395903
      ],
      [
        "Every",
        -9.030084188785352
      ],
      [
        "centur",
        -9.030748964732664
      ],
      [
        "196",
        -9.033284092424681
      ],
      [
        "single",
        -9.035975279893147
      ],
      [
        "held",
        -9.037781898456132
      ],
      [
        "attack",
        -9.039463088935278
      ],
      [
        "past",
        -9.039685481393127
      ],
      [
        "voice",
        -9.041116482084881
      ],
      [
        "!\"",
        -9.041465270257897
      ],
      [
        "support",
        -9.04223931666638
      ],
      [
        "living",
        -9.04425177464941
      ],
      [
        "British",
        -9.044490379558713
      ],
      [
        "phone",
        -9.048773392766702
      ],
      [
        "quick",
        -9.049647894110386
      ],
      [
        "include",
        -9.051003720139938
      ],
      [
        "common",
        -9.051974301174143
      ],
      [
        "ember",
        -9.053544939873785
      ],
      [
        "North",
        -9.05501946605125
      ],
      [
        "using",
        -9.055170518156732
      ],
      [
        "table",
        -9.058183015121948
      ],
      [
        "party",
        -9.058191444777773
      ],
      [
        "check",
        -9.059624823267374
      ],
      [
        "ril",
        -9.059631821184407
      ],
      [
        ",”",
        -9.061030024048438
      ],
      [
        "happen",
        -9.062140477070349
      ],
      [
        "clear",
        -9.068847633554814
      ],
      [
        "sound",
        -9.069695815261877
      ],
      [
        "beautiful",
        -9.071894002489046
      ],
      [
        "field",
        -9.07194887393543
      ],
      [
        "hundred",
        -9.073052602944465
      ],
      [
        "player",
        -9.076160364251027
      ],
      [
        "Z",
        -9.076913998611428
      ],
      [
        "ally",
        -9.077833628280938
      ],
      [
        "public",
        -9.079423474545777
      ],
      [
        "?\"",
        -9.07947881151623
      ],
      [
        "third",
        -9.081246282010392
      ],
      [
        "comes",
        -9.081620098719839
      ],
      [
        "built",
        -9.081784651232578
      ],
      [
        "mine",
        -9.082504170797609
      ],
      [
        "plan",
        -9.082624528530356
      ],
      [
        "album",
        -9.08535134423163
      ],
      [
        "fight",
        -9.088422002836278
      ],
      [
        "season",
        -9.091617404593254
      ],
      [
        "X",
        -9.092807224357625
      ],
      [
        "force",
        -9.094843226034229
      ],
      [
        "led",
        -9.096066344926758
      ],
      [
        "Sept",
        -9.097703295836348
      ],
      [
        "history",
        -9.097756222333555
      ],
      [
        "Ap",
        -9.099395270564512
      ],
      [
        "Dr",
        -9.100123029843196
      ],
      [
        "ground",
        -9.100729491242205
      ],
      [
        "thinking",
        -9.100785665230312
      ],
      [
        "local",
        -9.10127617176122
      ],
      [
        "haven",
        -9.102108874216066
      ],
      [
        "office",
        -9.103462827970358
      ],
      [
        "poor",
        -9.103956707465189
      ],
      [
        "President",
        -9.104085408445508
      ],
      [
        "deal",
        -9.10526531075904
      ],
      [
        "ley",
        -9.109408005841146
      ],
      [
        "German",
        -9.111522911966164
      ],
      [
        "July",
        -9.114536269211246
      ],
      [
        "eight",
        -9.116869806684198
      ],
      [
        "based",
        -9.11961220498376
      ],
      [
        "hair",
        -9.12076900751863
      ],
      [
        "See",
        -9.12087892920869
      ],
      [
        "ive",
        -9.12129966300212
      ],
      [
        "fall",
        -9.122823069972373
      ],
      [
        "level",
        -9.123012340123275
      ],
      [
        "Sir",
        -9.123806392734068
      ],
      [
        "French",
        -9.124787958425848
      ],
      [
        "possible",
        -9.128768264397749
      ],
      [
        "write",
        -9.131340284792724
      ],
      [
        "shot",
        -9.133471979895134
      ],
      [
        "wood",
        -9.134374673456964
      ],
      [
        "result",
        -9.135329728894142
      ],
      [
        "couldn",
        -9.135515733883526
      ],
      [
        "includin",
        -9.138305829971843
      ],
      [
        "buy",
        -9.13879323013822
      ],
      [
        "consider",
        -9.140872569879221
      ],
      [
        "bed",
        -9.141320613950176
      ],
      [
        "%",
        -9.141834014808254
      ],
      [
        "break",
        -9.144963750033932
      ],
      [
        "outside",
        -9.151242506912592
      ],
      [
        "population",
        -9.152012520747459
      ],
      [
        "National",
        -9.154810247556593
      ],
      [
        "ance",
        -9.156444924022853
      ],
      [
        "bird",
        -9.157525348597503
      ],
      [
        "receive",
        -9.158595978466732
      ],
      [
        "25",
        -9.158846202843973
      ],
      [
        "till",
        -9.158868820646854
      ],
      [
        "across",
        -9.159125280910178
      ],
      [
        "ling",
        -9.159625505429812
      ],
      [
        "Take",
        -9.161322727169457
      ],
      [
        "playing",
        -9.162349231960528
      ],
      [
        "act",
        -9.162548463496925
      ],
      [
        "June",
        -9.162811188883488
      ],
      [
        "listen",
        -9.164680420289987
      ],
      [
        "continue",
        -9.16681203332918
      ],
      [
        "ur",
        -9.166867627957973
      ],
      [
        "band",
        -9.16855610986756
      ],
      [
        "August",
        -9.170365485977976
      ],
      [
        "road",
        -9.170712250538784
      ],
      [
        "chance",
        -9.171403303341126
      ],
      [
        "London",
        -9.171676653317228
      ],
      [
        "Maybe",
        -9.174187018138074
      ],
      [
        "Like",
        -9.176241965932604
      ],
      [
        "ent",
        -9.17626987260936
      ],
      [
        "stand",
        -9.176848732589912
      ],
      [
        "list",
        -9.177162944803037
      ],
      [
        "original",
        -9.178131806059259
      ],
      [
        "inside",
        -9.17879523525561
      ],
      [
        "j",
        -9.179435815597616
      ],
      [
        "aught",
        -9.18350322773317
      ],
      [
        "character",
        -9.183752793344354
      ],
      [
        "written",
        -9.184535888941337
      ],
      [
        "speak",
        -9.18579761479976
      ],
      [
        "trouble",
        -9.186082787672142
      ],
      [
        "dear",
        -9.18631118323373
      ],
      [
        "gotta",
        -9.189654098493326
      ],
      [
        "save",
        -9.193133838768585
      ],
      [
        "ous",
        -9.194413841497404
      ],
      [
        "sister",
        -9.197142821228983
      ],
      [
        "former",
        -9.199568404270554
      ],
      [
        "sense",
        -9.199592400624653
      ],
      [
        "months",
        -9.200083163776608
      ],
      [
        "tried",
        -9.20418051466005
      ],
      [
        "position",
        -9.205602034619393
      ],
      [
        "region",
        -9.207218407092917
      ],
      [
        "design",
        -9.209902423220736
      ],
      [
        "felt",
        -9.21277975561091
      ],
      [
        "member",
        -9.213954057467683
      ],
      [
        "England",
        -9.21479486471532
      ],
      [
        "remain",
        -9.21488183021096
      ],
      [
        "space",
        -9.215859132880082
      ],
      [
        "north",
        -9.217654733594443
      ],
      [
        "By",
        -9.217910475902054
      ],
      [
        "wish",
        -9.218262566644567
      ],
      [
        "low",
        -9.218396226658824
      ],
      [
        "dark",
        -9.21904053157649
      ],
      [
        "couple",
        -9.219514098371057
      ],
      [
        "cost",
        -9.2200621298778
      ],
      [
        "lived",
        -9.220642692246681
      ],
      [
        "gun",
        -9.221722189806076
      ],
      [
        "dog",
        -9.22527248577363
      ],
      [
        "24",
        -9.225545361095605
      ],
      [
        "Octob",
        -9.226189609802587
      ],
      [
        "video",
        -9.226196683615882
      ],
      [
        "return",
        -9.227328204504005
      ],
      [
        "dad",
        -9.227432908083145
      ],
      [
        "miss",
        -9.229474881762986
      ],
      [
        "following",
        -9.229795623826572
      ],
      [
        "star",
        -9.231963263667
      ],
      [
        "special",
        -9.232131750222846
      ],
      [
        "husband",
        -9.232971618744761
      ],
      [
        "ca",
        -9.234969739315739
      ],
      [
        "—",
        -9.23569051790566
      ],
      [
        "From",
        -9.23677516196492
      ],
      [
        "hell",
        -9.240725264774536
      ],
      [
        "December",
        -9.241173266704072
      ],
      [
        "lay",
        -9.242323208238377
      ],
      [
        "student",
        -9.243223184603618
      ],
      [
        "thousand",
        -9.243642455076955
      ],
      [
        "particular",
        -9.243906943745433
      ],
      [
        "rule",
        -9.244231493638281
      ],
      [
        "hour",
        -9.24572524952557
      ],
      [
        "issue",
        -9.246461642002336
      ],
      [
        "America",
        -9.250984691631317
      ],
      [
        "November",
        -9.252191931177176
      ],
      [
        "police",
        -9.252783544134093
      ],
      [
        "Peter",
        -9.253572646615593
      ],
      [
        "con",
        -9.253719966930845
      ],
      [
        "||",
        -9.253819869172958
      ],
      [
        "uary",
        -9.257060580873874
      ],
      [
        "50",
        -9.257878835316653
      ],
      [
        "anyone",
        -9.259175153356306
      ],
      [
        "Ma",
        -9.261683740220832
      ],
      [
        "lie",
        -9.26403093656898
      ],
      [
        "City",
        -9.267274784366275
      ],
      [
        "OK",
        -9.26744629506086
      ],
      [
        "wrote",
        -9.268969171222782
      ],
      [
        "cold",
        -9.271366324667941
      ],
      [
        "produce",
        -9.273371925574352
      ],
      [
        "commune",
        -9.273917130696763
      ],
      [
        "whether",
        -9.274698069167876
      ],
      [
        "La",
        -9.277609247284364
      ],
      [
        "makes",
        -9.277655423831728
      ],
      [
        "control",
        -9.27823403059934
      ],
      [
        "village",
        -9.27849634128432
      ],
      [
        "hurt",
        -9.278552057047364
      ],
      [
        "fun",
        -9.279279557044866
      ],
      [
        "West",
        -9.280554889766258
      ],
      [
        "easy",
        -9.281017688232371
      ],
      [
        "Wait",
        -9.281613863059375
      ],
      [
        "doctor",
        -9.281682514925313
      ],
      [
        "Febr",
        -9.28245462039232
      ],
      [
        "2013",
        -9.284125756884908
      ],
      [
        "fell",
        -9.285111789263357
      ],
      [
        "Miss",
        -9.286697811995174
      ],
      [
        "box",
        -9.287725435195703
      ],
      [
        "everyone",
        -9.291117057579736
      ],
      [
        "equal",
        -9.29487430394202
      ],
      [
        "bar",
        -9.29527449316723
      ],
      [
        "worked",
        -9.295636085853229
      ],
      [
        "information",
        -9.295834980342176
      ],
      [
        "throw",
        -9.298498287442886
      ],
      [
        "tomorrow",
        -9.300153979009714
      ],
      [
        "plant",
        -9.301181197119185
      ],
      [
        "ought",
        -9.30339819522094
      ],
      [
        "tree",
        -9.303665203261719
      ],
      [
        "fish",
        -9.306157940454867
      ],
      [
        "figure",
        -9.307124032393979
      ],
      [
        "clean",
        -9.307199869316154
      ],
      [
        "feet",
        -9.31076502949994
      ],
      [
        "cos",
        -9.31316686121999
      ],
      [
        "reach",
        -9.317427573577916
      ],
      [
        "James",
        -9.317458486795626
      ],
      [
        "strong",
        -9.317719581841855
      ],
      [
        "view",
        -9.320370064724102
      ],
      [
        "type",
        -9.320577897848949
      ],
      [
        "worry",
        -9.321032202293924
      ],
      [
        "twenty",
        -9.32163533129123
      ],
      [
        "Le",
        -9.322062278350154
      ],
      [
        "fast",
        -9.323002554059176
      ],
      [
        "Er",
        -9.324937085121778
      ],
      [
        "2010",
        -9.326052686236135
      ],
      [
        "hours",
        -9.32624552047556
      ],
      [
        "George",
        -9.328985519447517
      ],
      [
        "sign",
        -9.329753151116416
      ],
      [
        "allow",
        -9.332932161951277
      ],
      [
        "cross",
        -9.333450226732797
      ],
      [
        "court",
        -9.333772018492143
      ],
      [
        "among",
        -9.33382889580082
      ],
      [
        "23",
        -9.337163378399875
      ],
      [
        "color",
        -9.337561004068451
      ],
      [
        "worth",
        -9.338346259823702
      ],
      [
        "Will",
        -9.342148961872448
      ],
      [
        "mouth",
        -9.342449012713146
      ],
      [
        "exactly",
        -9.342814577458189
      ],
      [
        "wa",
        -9.343933220765805
      ],
      [
        "21",
        -9.345606091438759
      ],
      [
        "looks",
        -9.346892181478072
      ],
      [
        "letter",
        -9.348640081890935
      ],
      [
        "ice",
        -9.349568519405544
      ],
      [
        "career",
        -9.351137971430814
      ],
      [
        "class",
        -9.351485573880662
      ],
      [
        "cannot",
        -9.353476760043623
      ],
      [
        "picture",
        -9.358611596056992
      ],
      [
        "members",
        -9.359660678792672
      ],
      [
        "lady",
        -9.35983328443665
      ],
      [
        "longer",
        -9.360340937530498
      ],
      [
        "é",
        -9.361255246351465
      ],
      [
        "report",
        -9.361555614493447
      ],
      [
        "alright",
        -9.361857173961521
      ],
      [
        "rate",
        -9.36249472954902
      ],
      [
        "Any",
        -9.363106031179854
      ],
      [
        "ities",
        -9.366223190898713
      ],
      [
        "supposed",
        -9.366808308542575
      ],
      [
        "Great",
        -9.369173111561238
      ],
      [
        "program",
        -9.369708285279687
      ],
      [
        "board",
        -9.370185728603555
      ],
      [
        "perhaps",
        -9.370537861496905
      ],
      [
        "interest",
        -9.376075554402924
      ],
      [
        "horse",
        -9.376121526096156
      ],
      [
        "100",
        -9.376171433854804
      ],
      [
        "running",
        -9.377052978005448
      ],
      [
        "drive",
        -9.379486096167557
      ],
      [
        "island",
        -9.37971368701335
      ],
      [
        "fair",
        -9.380291792291114
      ],
      [
        "afraid",
        -9.38153807426414
      ],
      [
        "sun",
        -9.382794131459345
      ],
      [
        "boys",
        -9.383500429381774
      ],
      [
        "crie",
        -9.383926431006916
      ],
      [
        "ex",
        -9.384040686307834
      ],
      [
        "national",
        -9.38655667363284
      ],
      [
        "Tell",
        -9.387401833031788
      ],
      [
        "meeting",
        -9.38744125275424
      ],
      [
        "learn",
        -9.387624797474931
      ],
      [
        "wind",
        -9.387995909323978
      ],
      [
        "due",
        -9.389949624874035
      ],
      [
        "cat",
        -9.390588842658854
      ],
      [
        "seat",
        -9.39074727079764
      ],
      [
        "blue",
        -9.391961793231715
      ],
      [
        "wide",
        -9.392841374654132
      ],
      [
        "period",
        -9.392943074613633
      ],
      [
        "test",
        -9.393052115431772
      ],
      [
        "touch",
        -9.395577726481356
      ],
      [
        "kept",
        -9.396020681945462
      ],
      [
        "Even",
        -9.396486638572796
      ],
      [
        "truth",
        -9.398982656136878
      ],
      [
        "department",
        -9.399086993530723
      ],
      [
        "ful",
        -9.401271849105793
      ],
      [
        "television",
        -9.40386104809956
      ],
      [
        "TV",
        -9.405089754659828
      ],
      [
        "YOU",
        -9.405102347011866
      ],
      [
        "pull",
        -9.40669406701737
      ],
      [
        "title",
        -9.407098949682279
      ],
      [
        "State",
        -9.407104791609783
      ],
      [
        "Give",
        -9.407666548023212
      ],
      [
        "nine",
        -9.40800850863792
      ],
      [
        "Thanks",
        -9.408586122182912
      ],
      [
        "Sorry",
        -9.412776120129001
      ],
      [
        "green",
        -9.4153846085527
      ],
      [
        "value",
        -9.416878535306436
      ],
      [
        "cover",
        -9.417944505719314
      ],
      [
        "popular",
        -9.419302644205215
      ],
      [
        "draw",
        -9.419314752980288
      ],
      [
        "pound",
        -9.420658939491128
      ],
      [
        "laugh",
        -9.421558633334886
      ],
      [
        "share",
        -9.422233798425237
      ],
      [
        "experience",
        -9.422437763399376
      ],
      [
        "rock",
        -9.42393716634305
      ],
      [
        "club",
        -9.425941723095846
      ],
      [
        "Stop",
        -9.42740250650348
      ],
      [
        "seemed",
        -9.428203569099633
      ],
      [
        "People",
        -9.428362086493784
      ],
      [
        "gold",
        -9.428775660037857
      ],
      [
        "Lord",
        -9.430847764136715
      ],
      [
        "above",
        -9.431679309511157
      ],
      [
        "communit",
        -9.431788039661459
      ],
      [
        "shit",
        -9.43344293047464
      ],
      [
        "direct",
        -9.43407433652737
      ],
      [
        "waiting",
        -9.435484372047503
      ],
      [
        "House",
        -9.440041614139425
      ],
      [
        "serious",
        -9.440064154515358
      ],
      [
        "Real",
        -9.44219609760929
      ],
      [
        "seven",
        -9.442309606327957
      ],
      [
        "foot",
        -9.442380384431587
      ],
      [
        "others",
        -9.44359766717425
      ],
      [
        "kids",
        -9.444400078418443
      ],
      [
        "visit",
        -9.446658040195292
      ],
      [
        "instead",
        -9.446968155508756
      ],
      [
        "ountries",
        -9.447580468077359
      ],
      [
        "kid",
        -9.448414184471684
      ],
      [
        "195",
        -9.450852057334226
      ],
      [
        "major",
        -9.45298457077714
      ],
      [
        "whatever",
        -9.456256033845698
      ],
      [
        "lives",
        -9.459498230291146
      ],
      [
        "lead",
        -9.460251060345614
      ],
      [
        "Captain",
        -9.460285998690651
      ],
      [
        "Two",
        -9.462936831047157
      ],
      [
        "created",
        -9.463164813178086
      ],
      [
        "role",
        -9.463387457147906
      ],
      [
        "famous",
        -9.465567264429046
      ],
      [
        "TO",
        -9.466773177897933
      ],
      [
        "offer",
        -9.467268754797244
      ],
      [
        "somebody",
        -9.472284234924146
      ],
      [
        "final",
        -9.472322371549335
      ],
      [
        "Erm",
        -9.472764508474176
      ],
      [
        "wear",
        -9.47398655353635
      ],
      [
        "fucking",
        -9.476800691931093
      ],
      [
        "stood",
        -9.477315359098014
      ],
      [
        "amount",
        -9.477552325102966
      ],
      [
        "28",
        -9.47847242719801
      ],
      [
        "enter",
        -9.479207368939255
      ],
      [
        "bag",
        -9.479753060658073
      ],
      [
        "sudden",
        -9.481855298873988
      ],
      [
        "Ye",
        -9.482747041258836
      ],
      [
        "everybody",
        -9.48346434986729
      ],
      [
        "accept",
        -9.48349713283984
      ],
      [
        "raise",
        -9.485087031985202
      ],
      [
        "send",
        -9.488104126250327
      ],
      [
        "train",
        -9.48844388562814
      ],
      [
        "difficult",
        -9.488981105429428
      ],
      [
        "dream",
        -9.489688507488733
      ],
      [
        "feeling",
        -9.489957917431958
      ],
      [
        "match",
        -9.4914268374665
      ],
      [
        "study",
        -9.495353568505458
      ],
      [
        "rich",
        -9.496407632246617
      ],
      [
        "natural",
        -9.496739128455204
      ],
      [
        "fuck",
        -9.500021457853883
      ],
      [
        "stage",
        -9.50017181340025
      ],
      [
        "Japan",
        -9.50124464954226
      ],
      [
        "square",
        -9.501392146716455
      ],
      [
        "murder",
        -9.50338507166753
      ],
      [
        "fear",
        -9.503394805389632
      ],
      [
        "key",
        -9.504572059108963
      ],
      [
        "provide",
        -9.505013982761316
      ],
      [
        "Michael",
        -9.507475066529967
      ],
      [
        "District",
        -9.509278552232571
      ],
      [
        "works",
        -9.510283589298435
      ],
      [
        "served",
        -9.511556380550761
      ],
      [
        "post",
        -9.512980796462482
      ],
      [
        "oving",
        -9.513294075834537
      ],
      [
        "decided",
        -9.513420205912745
      ],
      [
        "floor",
        -9.51376066433152
      ],
      [
        "evening",
        -9.51491478419544
      ],
      [
        "president",
        -9.517117729580281
      ],
      [
        "football",
        -9.51792980054939
      ],
      [
        "tonight",
        -9.518989879674287
      ],
      [
        "Paul",
        -9.51909257214039
      ],
      [
        "push",
        -9.520328880576882
      ],
      [
        "Dad",
        -9.523423782255232
      ],
      [
        "ver",
        -9.523467491336424
      ],
      [
        "official",
        -9.526433245253674
      ],
      [
        "social",
        -9.527317062443018
      ],
      [
        "First",
        -9.528350262839638
      ],
      [
        "condition",
        -9.531016259156477
      ],
      [
        "01",
        -9.531078703265184
      ],
      [
        "trust",
        -9.53141763657079
      ],
      [
        "passed",
        -9.532005284824473
      ],
      [
        "complete",
        -9.532216356921445
      ],
      [
        "feature",
        -9.53406860961278
      ],
      [
        "capital",
        -9.534433112794805
      ],
      [
        "race",
        -9.534586959056169
      ],
      [
        "future",
        -9.53468956827629
      ],
      [
        "David",
        -9.535613319846778
      ],
      [
        "cool",
        -9.53575216156026
      ],
      [
        "funny",
        -9.537522927992807
      ],
      [
        "194",
        -9.537809747743882
      ],
      [
        "Japanese",
        -9.538376231977484
      ],
      [
        "ill",
        -9.538627251890691
      ],
      [
        "normal",
        -9.53921863741523
      ],
      [
        "dress",
        -9.545032511123262
      ],
      [
        "version",
        -9.545645100686384
      ],
      [
        "wonder",
        -9.545973161495606
      ],
      [
        "IN",
        -9.546961641271299
      ],
      [
        "size",
        -9.547715342689706
      ],
      [
        "month",
        -9.548362287478902
      ],
      [
        "East",
        -9.548392437514565
      ],
      [
        "further",
        -9.548619390605964
      ],
      [
        "market",
        -9.548629485508675
      ],
      [
        "catch",
        -9.550295397413237
      ],
      [
        "anyway",
        -9.550979874453773
      ],
      [
        "project",
        -9.551159774041803
      ],
      [
        "telling",
        -9.551908063447925
      ],
      [
        "”",
        -9.552288205307939
      ],
      [
        "India",
        -9.552605187360564
      ],
      [
        "General",
        -9.55514009732385
      ],
      [
        "bear",
        -9.55740410267693
      ],
      [
        "School",
        -9.557945271340111
      ],
      [
        "subject",
        -9.559408882833331
      ],
      [
        "40",
        -9.55995167802412
      ],
      [
        "dance",
        -9.56079191472271
      ],
      [
        "street",
        -9.561742572707992
      ],
      [
        "church",
        -9.562272434242274
      ],
      [
        "flower",
        -9.562789008223508
      ],
      [
        "effect",
        -9.563482167915414
      ],
      [
        "appear",
        -9.565020192456398
      ],
      [
        "protect",
        -9.566403340393423
      ],
      [
        "ville",
        -9.56690112619041
      ],
      [
        "news",
        -9.567632048414678
      ],
      [
        "Jim",
        -9.568671166313184
      ],
      [
        "ize",
        -9.570573080782879
      ],
      [
        "San",
        -9.57075333743271
      ],
      [
        "2012",
        -9.572971914503627
      ],
      [
        "Con",
        -9.575953430944727
      ],
      [
        "mommy",
        -9.57621705418657
      ],
      [
        "Award",
        -9.5771791431515
      ],
      [
        "Was",
        -9.577419262811002
      ],
      [
        "pass",
        -9.57816353721136
      ],
      [
        "mom",
        -9.57881500676466
      ],
      [
        "burn",
        -9.578938981379139
      ],
      [
        "master",
        -9.579220964929803
      ],
      [
        "Nothing",
        -9.57989487483328
      ],
      [
        "followed",
        -9.580316261822407
      ],
      [
        "returned",
        -9.581129724116998
      ],
      [
        "county",
        -9.581625006404185
      ],
      [
        "boat",
        -9.582512932459132
      ],
      [
        "difference",
        -9.58368987557149
      ],
      [
        "whose",
        -9.584727609760652
      ],
      [
        "During",
        -9.585358316039297
      ],
      [
        "bigge",
        -9.586352773686647
      ],
      [
        "parents",
        -9.588290120583034
      ],
      [
        "beginning",
        -9.590502271818888
      ],
      [
        "Germany",
        -9.591881806108953
      ],
      [
        "careful",
        -9.59239069110706
      ],
      [
        "teacher",
        -9.592854846799296
      ],
      [
        "US",
        -9.59437734759318
      ],
      [
        "Ben",
        -9.59550275683607
      ],
      [
        "river",
        -9.596451799822347
      ],
      [
        "mention",
        -9.596621706629383
      ],
      [
        "ki",
        -9.597606968639038
      ],
      [
        "district",
        -9.598290351394333
      ],
      [
        "specie",
        -9.598324692169975
      ],
      [
        "contain",
        -9.59892288917849
      ],
      [
        "giving",
        -9.599297318330205
      ],
      [
        "Island",
        -9.603205550466987
      ],
      [
        "process",
        -9.604399185984953
      ],
      [
        "sweet",
        -9.604942609009967
      ],
      [
        "paid",
        -9.605717913280046
      ],
      [
        "lose",
        -9.607418322622348
      ],
      [
        "similar",
        -9.610105044662857
      ],
      [
        "enjoy",
        -9.610135686796829
      ],
      [
        "step",
        -9.61017781653823
      ],
      [
        "scene",
        -9.611051771873854
      ],
      [
        "weeks",
        -9.611128707216995
      ],
      [
        "books",
        -9.612091286039629
      ],
      [
        "finished",
        -9.613765919033728
      ],
      [
        "crazy",
        -9.615076836086537
      ],
      [
        "exist",
        -9.615267031397725
      ],
      [
        "arm",
        -9.616393768340442
      ],
      [
        "warm",
        -9.61717583516262
      ],
      [
        "26",
        -9.61794092412725
      ],
      [
        "forget",
        -9.618174047376826
      ],
      [
        "sitting",
        -9.618519506303567
      ],
      [
        "kiss",
        -9.618606856721245
      ],
      [
        "political",
        -9.619123941572065
      ],
      [
        "personal",
        -9.619839720313397
      ],
      [
        "agree",
        -9.619852499492538
      ],
      [
        "simple",
        -9.620129497086861
      ],
      [
        "count",
        -9.622817522219698
      ],
      [
        "situation",
        -9.62308076553148
      ],
      [
        "straight",
        -9.624959956056944
      ],
      [
        "honey",
        -9.625295704833945
      ],
      [
        "Illin",
        -9.625528236360477
      ],
      [
        "Virginia",
        -9.626121254476878
      ],
      [
        "date",
        -9.626844550308213
      ],
      [
        "Park",
        -9.627514026492001
      ],
      [
        "ear",
        -9.628775871513895
      ],
      [
        "Jack",
        -9.628833499835839
      ],
      [
        "writing",
        -9.629285704439773
      ],
      [
        "computer",
        -9.629550449244674
      ],
      [
        "Mom",
        -9.630786067471963
      ],
      [
        "Most",
        -9.631240172161291
      ],
      [
        "stone",
        -9.631445286321664
      ],
      [
        "safe",
        -9.633249945807181
      ],
      [
        "south",
        -9.6360393493006
      ],
      [
        "Henry",
        -9.636227144728885
      ],
      [
        "located",
        -9.63628690896769
      ],
      [
        "animals",
        -9.636843408762335
      ],
      [
        "Tom",
        -9.638603990483844
      ],
      [
        "glad",
        -9.638886500481028
      ],
      [
        "Q",
        -9.639819537236995
      ],
      [
        "pre",
        -9.63997004943755
      ],
      [
        "forward",
        -9.640678205875368
      ],
      [
        "27",
        -9.64149771118516
      ],
      [
        "middle",
        -9.64162840428212
      ],
      [
        "election",
        -9.641699887770343
      ],
      [
        "park",
        -9.641834847124956
      ],
      [
        "ard",
        -9.642571474257426
      ],
      [
        "interesting",
        -9.643082322873013
      ],
      [
        "action",
        -9.64343483316766
      ],
      [
        "quiet",
        -9.644575605235733
      ],
      [
        "tic",
        -9.645621304401615
      ],
      [
        "29",
        -9.646061630675522
      ],
      [
        "River",
        -9.646583273547424
      ],
      [
        "sub",
        -9.647238140130444
      ],
      [
        "total",
        -9.648240783209705
      ],
      [
        "follow",
        -9.65027051774743
      ],
      [
        "Which",
        -9.651612106932651
      ],
      [
        "card",
        -9.652264181107753
      ],
      [
        "ham",
        -9.652530008171198
      ],
      [
        "Europe",
        -9.6551271505548
      ],
      [
        "professional",
        -9.65718835638425
      ],
      [
        "standing",
        -9.65970823909431
      ],
      [
        "leaving",
        -9.659918665329922
      ],
      [
        "expect",
        -9.660338136329363
      ],
      [
        "Our",
        -9.661699609316322
      ],
      [
        "thou",
        -9.661859108051953
      ],
      [
        "answered",
        -9.663289843604105
      ],
      [
        "hospital",
        -9.663740362581176
      ],
      [
        "fly",
        -9.663851603042524
      ],
      [
        "Queen",
        -9.66409916621729
      ],
      [
        "decision",
        -9.665136990214428
      ],
      [
        "games",
        -9.665244215471496
      ],
      [
        "within",
        -9.665411124299615
      ],
      [
        "towards",
        -9.665814164974915
      ],
      [
        "wants",
        -9.666189917706962
      ],
      [
        "suppose",
        -9.667695411218336
      ],
      [
        "daddy",
        -9.667813235907776
      ],
      [
        "suggest",
        -9.669098297460717
      ],
      [
        "Ar",
        -9.669228741486382
      ],
      [
        "jump",
        -9.669356050679378
      ],
      [
        "bridge",
        -9.671868767978918
      ],
      [
        "modern",
        -9.67250169701612
      ],
      [
        "cook",
        -9.673437800630005
      ],
      [
        "roll",
        -9.673861626497107
      ],
      [
        "Co",
        -9.673892005484639
      ],
      [
        "window",
        -9.674184298068345
      ],
      [
        "build",
        -9.675435854773205
      ],
      [
        "bus",
        -9.67838456567557
      ],
      [
        "forest",
        -9.681797090051944
      ],
      [
        "Robert",
        -9.681949000675694
      ],
      [
        "California",
        -9.682041522382187
      ],
      [
        "stick",
        -9.682205254844124
      ],
      [
        "nature",
        -9.683485893723965
      ],
      [
        "AND",
        -9.687906263958554
      ],
      [
        "discover",
        -9.687941175330383
      ],
      [
        "Would",
        -9.688456776546065
      ],
      [
        "happens",
        -9.688838483025473
      ],
      [
        "miles",
        -9.689903732424554
      ],
      [
        "secret",
        -9.689985021756623
      ],
      [
        "ak",
        -9.692275801303861
      ],
      [
        "begin",
        -9.692474936569482
      ],
      [
        "actor",
        -9.69247991670504
      ],
      [
        "ahead",
        -9.692730377540666
      ],
      [
        "sick",
        -9.693125920588216
      ],
      [
        "Black",
        -9.693201241726957
      ],
      [
        "ON",
        -9.693239326562676
      ],
      [
        "whom",
        -9.69347103095489
      ],
      [
        "strange",
        -9.69369788780175
      ],
      [
        "perform",
        -9.694283335240735
      ],
      [
        "path",
        -9.694955367202724
      ],
      [
        "increase",
        -9.695309308394648
      ],
      [
        "product",
        -9.696076264153842
      ],
      [
        "oil",
        -9.69744139634741
      ],
      [
        "wall",
        -9.698198083416965
      ],
      [
        "Mary",
        -9.698803019371681
      ],
      [
        "ja",
        -9.6991847211437
      ],
      [
        "beat",
        -9.699263521449762
      ],
      [
        "various",
        -9.701424688292796
      ],
      [
        "rain",
        -9.70203007276477
      ],
      [
        "Only",
        -9.703489929072951
      ],
      [
        "League",
        -9.704672115326957
      ],
      [
        "especially",
        -9.704856325182476
      ],
      [
        "sky",
        -9.705295117702601
      ],
      [
        "ride",
        -9.705769895525714
      ],
      [
        "private",
        -9.705784443700146
      ],
      [
        "Many",
        -9.705855239801009
      ],
      [
        "east",
        -9.707575890924932
      ],
      [
        "science",
        -9.708939505641258
      ],
      [
        "machine",
        -9.70915459036676
      ],
      [
        "van",
        -9.712117713630619
      ],
      [
        "patient",
        -9.712322182259761
      ],
      [
        "material",
        -9.7123305639327
      ],
      [
        "High",
        -9.713555356710778
      ],
      [
        "Other",
        -9.714077995114273
      ],
      [
        "model",
        -9.717479752412906
      ],
      [
        "search",
        -9.718015814063751
      ],
      [
        "basic",
        -9.718625519948114
      ],
      [
        "travel",
        -9.719290003151272
      ],
      [
        "account",
        -9.720054330058694
      ],
      [
        "Indian",
        -9.721011843201603
      ],
      [
        "ez",
        -9.722122564466902
      ],
      [
        "Ba",
        -9.722288019816544
      ],
      [
        "chair",
        -9.72302307362024
      ],
      [
        "clothes",
        -9.723504785869665
      ],
      [
        "memor",
        -9.724165347609837
      ],
      [
        "cell",
        -9.725687712859921
      ],
      [
        "ory",
        -9.726474763520716
      ],
      [
        "mad",
        -9.72695251913214
      ],
      [
        "regard",
        -9.7270387926596
      ],
      [
        "respect",
        -9.727383832375661
      ],
      [
        "track",
        -9.730708792732045
      ],
      [
        "blow",
        -9.731171237177222
      ],
      [
        "Richard",
        -9.7311900393187
      ],
      [
        "pro",
        -9.731438329798706
      ],
      [
        "development",
        -9.732160575677298
      ],
      [
        "claim",
        -9.73220754652705
      ],
      [
        "sex",
        -9.73298406516614
      ],
      [
        "iz",
        -9.734510424823831
      ],
      [
        "college",
        -9.734541463695152
      ],
      [
        "Bob",
        -9.734933796479329
      ],
      [
        "movement",
        -9.735175011634361
      ],
      [
        "shut",
        -9.735218528120123
      ],
      [
        "battle",
        -9.738892640861113
      ],
      [
        "deep",
        -9.741269180226833
      ],
      [
        "Very",
        -9.742430126364315
      ],
      [
        "Since",
        -9.742446446897965
      ],
      [
        "dinner",
        -9.742673009204111
      ],
      [
        "involved",
        -9.74267581887856
      ],
      [
        "add",
        -9.742863047901235
      ],
      [
        "appeared",
        -9.743162639689837
      ],
      [
        "lying",
        -9.747732569266436
      ],
      [
        "ial",
        -9.749150710995256
      ],
      [
        "Church",
        -9.749165829662783
      ],
      [
        "Jo",
        -9.749596664576654
      ],
      [
        "port",
        -9.750972026716926
      ],
      [
        "Florid",
        -9.751548796095307
      ],
      [
        "leader",
        -9.7520411503993
      ],
      [
        "Listen",
        -9.752690637957016
      ],
      [
        "explain",
        -9.752776115968647
      ],
      [
        "dry",
        -9.754406172237626
      ],
      [
        "summer",
        -9.755265223501244
      ],
      [
        "ide",
        -9.755769342950556
      ],
      [
        "tired",
        -9.75639550541867
      ],
      [
        "Um",
        -9.758205266263879
      ],
      [
        "hang",
        -9.75951346975234
      ],
      [
        "Union",
        -9.760203450658544
      ],
      [
        "except",
        -9.760456957473666
      ],
      [
        "style",
        -9.76148363533493
      ],
      [
        "describe",
        -9.761492306232762
      ],
      [
        "earth",
        -9.762974454507539
      ],
      [
        "Bu",
        -9.763879051671047
      ],
      [
        "energy",
        -9.76533052699377
      ],
      [
        "cap",
        -9.765502105811805
      ],
      [
        "RE",
        -9.76671136847054
      ],
      [
        "Frank",
        -9.768166651888626
      ],
      [
        "somewhere",
        -9.768251764790515
      ],
      [
        "Car",
        -9.768964285282182
      ],
      [
        "pen",
        -9.769855311491611
      ],
      [
        "Court",
        -9.770200297196716
      ],
      [
        "finally",
        -9.770941592253267
      ],
      [
        "sell",
        -9.772753553552624
      ],
      [
        "ler",
        -9.772950309646117
      ],
      [
        "destroy",
        -9.773496167848116
      ],
      [
        "?”",
        -9.774508580031888
      ],
      [
        "anybody",
        -9.774619226567108
      ],
      [
        "sight",
        -9.774975676267399
      ],
      [
        "page",
        -9.775324136912314
      ],
      [
        "trade",
        -9.776924561405549
      ],
      [
        "grow",
        -9.777166474624373
      ],
      [
        "han",
        -9.777225918207796
      ],
      [
        "message",
        -9.783090141820512
      ],
      [
        "Party",
        -9.78314711773658
      ],
      [
        "added",
        -9.783287359128156
      ],
      [
        "spent",
        -9.78490850811092
      ],
      [
        "promise",
        -9.78516335799664
      ],
      [
        "lower",
        -9.785485344370818
      ],
      [
        "soft",
        -9.785961778253359
      ],
      [
        "gu",
        -9.786361323503922
      ],
      [
        "Ka",
        -9.786787875740622
      ],
      [
        "purpose",
        -9.787588243304665
      ],
      [
        "leg",
        -9.788204689194716
      ],
      [
        "price",
        -9.789303378252146
      ],
      [
        "militar",
        -9.789993041690387
      ],
      [
        "grew",
        -9.789993083841203
      ],
      [
        "perfect",
        -9.790265103981515
      ],
      [
        "realize",
        -9.793812078141318
      ],
      [
        "disease",
        -9.79473459070499
      ],
      [
        "coach",
        -9.79474882992667
      ],
      [
        "pain",
        -9.795270662151673
      ],
      [
        "studie",
        -9.795445693753388
      ],
      [
        "mhm",
        -9.79566684235089
      ],
      [
        "current",
        -9.796930356568671
      ],
      [
        "Sure",
        -9.79754271981492
      ],
      [
        "ke",
        -9.79783546881141
      ],
      [
        "Di",
        -9.798989407567618
      ],
      [
        "speaking",
        -9.799434380233208
      ],
      [
        "west",
        -9.80124193369172
      ],
      [
        "White",
        -9.801747251997845
      ],
      [
        "limit",
        -9.802626719798585
      ],
      [
        "stopped",
        -9.803311712076756
      ],
      [
        "Red",
        -9.803468004968144
      ],
      [
        "center",
        -9.803676673502135
      ],
      [
        "mid",
        -9.804890046792847
      ],
      [
        "indeed",
        -9.804949331037173
      ],
      [
        "broke",
        -9.805793451872887
      ],
      [
        "marriage",
        -9.80670769697183
      ],
      [
        "William",
        -9.807617415303977
      ],
      [
        "finish",
        -9.8079610387794
      ],
      [
        "bought",
        -9.810635898002541
      ],
      [
        "\")",
        -9.814413184086682
      ],
      [
        "needed",
        -9.814781419929986
      ],
      [
        "length",
        -9.815144750033262
      ],
      [
        "universit",
        -9.815363098175336
      ],
      [
        "2009",
        -9.815509919246217
      ],
      [
        "Christ",
        -9.817192521822275
      ],
      [
        "attention",
        -9.817629966849497
      ],
      [
        "ell",
        -9.817877928351557
      ],
      [
        "clock",
        -9.81855215418155
      ],
      [
        "risk",
        -9.818973853797324
      ],
      [
        "require",
        -9.819426043701663
      ],
      [
        "degree",
        -9.819608357021881
      ],
      [
        "army",
        -9.820227473384472
      ],
      [
        "code",
        -9.8210979429848
      ],
      [
        "Mar",
        -9.823861238861983
      ],
      [
        "European",
        -9.824492147525348
      ],
      [
        "although",
        -9.824713801504894
      ],
      [
        "entire",
        -9.824832609090588
      ],
      [
        "193",
        -9.826053968685194
      ],
      [
        "asking",
        -9.828550914059942
      ],
      [
        "speed",
        -9.82870819762552
      ],
      [
        "spirit",
        -9.83119567136731
      ],
      [
        "officer",
        -9.831818637062423
      ],
      [
        "health",
        -9.831831372033985
      ],
      [
        "gate",
        -9.832744607603566
      ],
      [
        "dollar",
        -9.833725293569017
      ],
      [
        "2008",
        -9.83421284453309
      ],
      [
        "Roman",
        -9.834774218470141
      ],
      [
        "signed",
        -9.834812129978094
      ],
      [
        "Three",
        -9.836120621384776
      ],
      [
        "ng",
        -9.836604693381975
      ],
      [
        "separate",
        -9.838216968837898
      ],
      [
        "represent",
        -9.838645792611585
      ],
      [
        "stairs",
        -9.840281606920705
      ],
      [
        "create",
        -9.84063501199859
      ],
      [
        "press",
        -9.842444746831248
      ],
      [
        "milk",
        -9.84269768679138
      ],
      [
        "broken",
        -9.84327877172532
      ],
      [
        "practice",
        -9.843665019605623
      ],
      [
        "wild",
        -9.844569403662
      ],
      [
        "Italian",
        -9.844844129707443
      ],
      [
        "block",
        -9.845309818949449
      ],
      [
        "gas",
        -9.846362391287641
      ],
      [
        "eating",
        -9.846613207709055
      ],
      [
        "Arm",
        -9.847167336067969
      ],
      [
        "command",
        -9.849652571820254
      ],
      [
        "brain",
        -9.849954388321517
      ],
      [
        "doubt",
        -9.85073115803418
      ],
      [
        "Excuse",
        -9.851132144002495
      ],
      [
        "2000",
        -9.851313247773632
      ],
      [
        "Charles",
        -9.851460968442964
      ],
      [
        "joined",
        -9.851515137517477
      ],
      [
        "abad",
        -9.85178602211696
      ],
      [
        "arms",
        -9.851913498331605
      ],
      [
        "politician",
        -9.85240257579569
      ],
      [
        "Dan",
        -9.852636373542602
      ],
      [
        "camp",
        -9.854594700833946
      ],
      [
        "Jesu",
        -9.854973264627855
      ],
      [
        "simply",
        -9.8551501080151
      ],
      [
        "artist",
        -9.855329881816827
      ],
      [
        "announce",
        -9.856022943875093
      ],
      [
        "individual",
        -9.857460997174428
      ],
      [
        "relationship",
        -9.857591476002375
      ],
      [
        "animal",
        -9.857967984503883
      ],
      [
        "influence",
        -9.858766059688778
      ],
      [
        "gain",
        -9.861877175059341
      ],
      [
        "q",
        -9.862596992150827
      ],
      [
        "store",
        -9.862694168584724
      ],
      [
        "carried",
        -9.863169508010806
      ],
      [
        "Alan",
        -9.863658052619016
      ],
      [
        "fellow",
        -9.864164233794916
      ],
      [
        "shoot",
        -9.864733173896118
      ],
      [
        "obvious",
        -9.865109211048676
      ],
      [
        "captain",
        -9.865115870998231
      ],
      [
        "wound",
        -9.866394429983837
      ],
      [
        "Master",
        -9.866491017493791
      ],
      [
        "production",
        -9.867795127978166
      ],
      [
        "double",
        -9.868702887324922
      ],
      [
        "successful",
        -9.869088317109181
      ],
      [
        "covered",
        -9.869149980045098
      ],
      [
        "While",
        -9.87024970895412
      ],
      [
        "defeat",
        -9.870308174625194
      ],
      [
        "soul",
        -9.871720220389829
      ],
      [
        "site",
        -9.872562003333101
      ],
      [
        "factor",
        -9.874901929571784
      ],
      [
        "spend",
        -9.87619722590559
      ],
      [
        "education",
        -9.876559092968426
      ],
      [
        "har",
        -9.878033051324348
      ],
      [
        "Street",
        -9.879340188634558
      ],
      [
        "event",
        -9.879898426012016
      ],
      [
        "Father",
        -9.880012643287774
      ],
      [
        "weight",
        -9.881285485864037
      ],
      [
        "completely",
        -9.88128574664977
      ],
      [
        "pop",
        -9.881581647720186
      ],
      [
        "episode",
        -9.881883793591111
      ],
      [
        "rose",
        -9.884034458721072
      ],
      [
        "director",
        -9.885113093856798
      ],
      [
        "Dick",
        -9.886010700303903
      ],
      [
        "firm",
        -9.88704010412485
      ],
      [
        "plus",
        -9.887944155186283
      ],
      [
        "que",
        -9.889185226842567
      ],
      [
        "publishe",
        -9.88929515106657
      ],
      [
        "wise",
        -9.890227779865743
      ],
      [
        "opportunit",
        -9.890689891957958
      ],
      [
        "Mc",
        -9.890803208542751
      ],
      [
        "spoke",
        -9.890818105729405
      ],
      [
        "object",
        -9.8917707140487
      ],
      [
        "meaning",
        -9.891781661131056
      ],
      [
        "distance",
        -9.892362868806805
      ],
      [
        "honest",
        -9.892883804863995
      ],
      [
        "included",
        -9.892962893836854
      ],
      [
        "OF",
        -9.8934368016858
      ],
      [
        "Washington",
        -9.893664162491957
      ],
      [
        "meant",
        -9.893882977089271
      ],
      [
        "Joe",
        -9.893952849849631
      ],
      [
        "Pro",
        -9.89419569313823
      ],
      [
        "carry",
        -9.894710927197703
      ],
      [
        "previous",
        -9.896300844093604
      ],
      [
        "rid",
        -9.899025638380841
      ],
      [
        "seeing",
        -9.899234913997653
      ],
      [
        "riving",
        -9.899267963383668
      ],
      [
        "research",
        -9.899636871144578
      ],
      [
        "thanks",
        -9.902042353770899
      ],
      [
        "terribl",
        -9.902928594170383
      ],
      [
        "watching",
        -9.903205186031666
      ],
      [
        "join",
        -9.904614639969314
      ],
      [
        "spread",
        -9.90538775377733
      ],
      [
        "cup",
        -9.905891762394045
      ],
      [
        "vote",
        -9.906872942358858
      ],
      [
        "ended",
        -9.907620860615944
      ],
      [
        "numbers",
        -9.90786332352144
      ],
      [
        "belong",
        -9.907887855016146
      ],
      [
        "suit",
        -9.9081203902327
      ],
      [
        "abilit",
        -9.908214781760456
      ],
      [
        "evidence",
        -9.908253178176308
      ],
      [
        "below",
        -9.908806294145887
      ],
      [
        "takes",
        -9.90935630288535
      ],
      [
        "storm",
        -9.910922943780992
      ],
      [
        "ated",
        -9.911069331349056
      ],
      [
        "les",
        -9.912247596384333
      ],
      [
        "Christian",
        -9.912994878460024
      ],
      [
        "host",
        -9.915404234848525
      ],
      [
        "(\"",
        -9.91593732507961
      ],
      [
        "trip",
        -9.918994534926224
      ],
      [
        "College",
        -9.918999044182877
      ],
      [
        "loved",
        -9.919427723056193
      ],
      [
        "bill",
        -9.920535258576166
      ],
      [
        "mistake",
        -9.921136735773663
      ],
      [
        "corner",
        -9.92160592163137
      ],
      [
        "wave",
        -9.921902491341957
      ],
      [
        "charge",
        -9.921909522071555
      ],
      [
        "spot",
        -9.921952440288917
      ],
      [
        "()",
        -9.92207912085222
      ],
      [
        "heavy",
        -9.922562082775364
      ],
      [
        "smile",
        -9.92533309070321
      ],
      [
        "Paris",
        -9.926325543037295
      ],
      [
        "China",
        -9.926750578188855
      ],
      [
        "founded",
        -9.926755478151684
      ],
      [
        "detail",
        -9.927243873315788
      ],
      [
        "developed",
        -9.927482736636703
      ],
      [
        "Vi",
        -9.927657918194612
      ],
      [
        "International",
        -9.927949959888773
      ],
      [
        "crew",
        -9.929548009437541
      ],
      [
        "lines",
        -9.92978889782525
      ],
      [
        "structure",
        -9.92985736706602
      ],
      [
        "Cor",
        -9.930500613641156
      ],
      [
        "happening",
        -9.930951513925574
      ],
      [
        "families",
        -9.931227141505655
      ],
      [
        "knock",
        -9.93122864723604
      ],
      [
        "regular",
        -9.932585834550643
      ],
      [
        "More",
        -9.932835541130672
      ],
      [
        "cry",
        -9.934509880505022
      ],
      [
        "Py",
        -9.934557189638436
      ],
      [
        "rise",
        -9.934893345819152
      ],
      [
        "data",
        -9.935436231447817
      ],
      [
        "bank",
        -9.93760297425414
      ],
      [
        "stupid",
        -9.93808997558124
      ],
      [
        "glass",
        -9.938114708716768
      ],
      [
        "60",
        -9.938274137480736
      ],
      [
        "proper",
        -9.939281954039027
      ],
      [
        "wonderful",
        -9.939658359560841
      ],
      [
        "com",
        -9.94004788697329
      ],
      [
        "edge",
        -9.942675890877016
      ],
      [
        "Cup",
        -9.942684897633992
      ],
      [
        "Ra",
        -9.942774407140487
      ],
      [
        "lock",
        -9.943185040372326
      ],
      [
        "writer",
        -9.943517396690854
      ],
      [
        "image",
        -9.943808815232792
      ],
      [
        "Africa",
        -9.945174686516893
      ],
      [
        "link",
        -9.945336596395466
      ],
      [
        "interested",
        -9.94667981296962
      ],
      [
        "ating",
        -9.94699467807707
      ],
      [
        "Hill",
        -9.947410787292313
      ],
      [
        "census",
        -9.948011422176428
      ],
      [
        "Saint",
        -9.94801289330496
      ],
      [
        "nearly",
        -9.949352163019885
      ],
      [
        "ious",
        -9.949732788306626
      ],
      [
        "Earth",
        -9.950558872241867
      ],
      [
        "bottom",
        -9.953343039698435
      ],
      [
        "fail",
        -9.954027615685813
      ],
      [
        "Australia",
        -9.955004052240955
      ],
      [
        "che",
        -9.95569902141275
      ],
      [
        "coffee",
        -9.956143315548019
      ],
      [
        "available",
        -9.958981223868385
      ],
      [
        "fix",
        -9.959770376424448
      ],
      [
        "peace",
        -9.960185788552401
      ],
      [
        "Boy",
        -9.960891221217501
      ],
      [
        "radio",
        -9.962765084267662
      ],
      [
        "chief",
        -9.96317238148291
      ],
      [
        "luck",
        -9.96341277906533
      ],
      [
        "Star",
        -9.964770131245697
      ],
      [
        "Love",
        -9.965010976325757
      ],
      [
        "marry",
        -9.965525469275523
      ],
      [
        "Minister",
        -9.96600771294387
      ],
      [
        "Su",
        -9.968600981244848
      ],
      [
        "base",
        -9.969221561678467
      ],
      [
        "OR",
        -9.96968541870056
      ],
      [
        "Put",
        -9.969944247573189
      ],
      [
        "religion",
        -9.971678940191289
      ],
      [
        "truck",
        -9.972624323901506
      ],
      [
        "female",
        -9.973142275776686
      ],
      [
        "address",
        -9.974260785491886
      ],
      [
        "Got",
        -9.975719903031198
      ],
      [
        "success",
        -9.975859279452038
      ],
      [
        "score",
        -9.977035269135726
      ],
      [
        "Lee",
        -9.97731197105054
      ],
      [
        "huge",
        -9.977595689347655
      ],
      [
        "Abou",
        -9.979545003478774
      ],
      [
        "direction",
        -9.979883117749043
      ],
      [
        "media",
        -9.980112909333569
      ],
      [
        "larges",
        -9.98021977896034
      ],
      [
        "choice",
        -9.980550616547166
      ],
      [
        "focus",
        -9.980591287731324
      ],
      [
        "Louis",
        -9.980615783042603
      ],
      [
        "hill",
        -9.98181730554954
      ],
      [
        "serve",
        -9.981959950717695
      ],
      [
        "award",
        -9.983070761807245
      ],
      [
        "section",
        -9.983254924920473
      ],
      [
        "loud",
        -9.983530903274428
      ],
      [
        "shouldn",
        -9.983748877733163
      ],
      [
        "Their",
        -9.984214664660758
      ],
      [
        "31",
        -9.984690548708233
      ],
      [
        "History",
        -9.985008239292615
      ],
      [
        "birthday",
        -9.98523010886674
      ],
      [
        "worse",
        -9.985488947691321
      ],
      [
        "Could",
        -9.986028169422248
      ],
      [
        "AN",
        -9.987078421097529
      ],
      [
        "imagine",
        -9.987461208947211
      ],
      [
        "El",
        -9.987512834883937
      ],
      [
        "Those",
        -9.987576090351794
      ],
      [
        "coast",
        -9.987759654012933
      ],
      [
        "Green",
        -9.988473672398925
      ],
      [
        "ung",
        -9.98867277163563
      ],
      [
        "skin",
        -9.98936773965168
      ],
      [
        "ster",
        -9.989905488414767
      ],
      [
        "engine",
        -9.990845600644905
      ],
      [
        "correct",
        -9.992404451146069
      ],
      [
        "access",
        -9.994129392643321
      ],
      [
        "trees",
        -9.994550840163527
      ],
      [
        "Fi",
        -9.994565940458399
      ],
      [
        "welcome",
        -9.995660030676722
      ],
      [
        "hole",
        -9.99598496526751
      ],
      [
        "Sea",
        -9.998850326920506
      ],
      [
        "Air",
        -9.999018076916784
      ],
      [
        "scared",
        -10.000031939594532
      ],
      [
        "ju",
        -10.000051931438133
      ],
      [
        "Bar",
        -10.000111471218272
      ],
      [
        "content",
        -10.000569281733556
      ],
      [
        "cha",
        -10.000600236813893
      ],
      [
        "storie",
        -10.000764543521576
      ],
      [
        "divide",
        -10.000896648335626
      ],
      [
        "gotte",
        -10.000921313628066
      ],
      [
        "Com",
        -10.001341218839395
      ],
      [
        "pair",
        -10.001881046077305
      ],
      [
        "ER",
        -10.003209273774285
      ],
      [
        "training",
        -10.00577900743163
      ],
      [
        "tape",
        -10.006084859965036
      ],
      [
        "organization",
        -10.006481205060545
      ],
      [
        "demand",
        -10.00660520216851
      ],
      [
        "00",
        -10.007329578840245
      ],
      [
        "escape",
        -10.008931241763936
      ],
      [
        "function",
        -10.008974288541257
      ],
      [
        "Mark",
        -10.009682949655756
      ],
      [
        "nation",
        -10.010544756142163
      ],
      [
        "effort",
        -10.010922226446201
      ],
      [
        "Scot",
        -10.011105144013627
      ],
      [
        "chi",
        -10.011193921247743
      ],
      [
        "chose",
        -10.011218560805016
      ],
      [
        "Big",
        -10.011423110087495
      ],
      [
        "ble",
        -10.011452103997925
      ],
      [
        "cast",
        -10.01202441189632
      ],
      [
        "Over",
        -10.012160902161584
      ],
      [
        "showed",
        -10.01263757254703
      ],
      [
        "drop",
        -10.012649462914403
      ],
      [
        "flow",
        -10.014390575471435
      ],
      [
        "ural",
        -10.01540056590207
      ],
      [
        "heat",
        -10.016610222550185
      ],
      [
        "mountain",
        -10.018250832816895
      ],
      [
        "super",
        -10.018713954832993
      ],
      [
        "culture",
        -10.019809282737164
      ],
      [
        "2004",
        -10.02029202840429
      ],
      [
        "Day",
        -10.021386529490783
      ],
      [
        "standard",
        -10.021463865373615
      ],
      [
        "review",
        -10.021617446078437
      ],
      [
        "neck",
        -10.022208547639405
      ],
      [
        "propert",
        -10.023705919338127
      ],
      [
        "Central",
        -10.02428442313093
      ],
      [
        "smell",
        -10.024398904948377
      ],
      [
        "llowed",
        -10.024511559236627
      ],
      [
        "nobody",
        -10.024664626103856
      ],
      [
        "35",
        -10.02527845538502
      ],
      [
        "Fuck",
        -10.025970464923253
      ],
      [
        "thus",
        -10.02791293930764
      ],
      [
        "rank",
        -10.028606599571361
      ],
      [
        "fourth",
        -10.028914683311033
      ],
      [
        "row",
        -10.028995543693615
      ],
      [
        "fresh",
        -10.029283459012998
      ],
      [
        "international",
        -10.029297614966602
      ],
      [
        "singer",
        -10.029318906524345
      ],
      [
        "hirty",
        -10.029353559009188
      ],
      [
        "Sh",
        -10.029968500687275
      ],
      [
        "tail",
        -10.030314664015293
      ],
      [
        "zi",
        -10.030675838344248
      ],
      [
        "learned",
        -10.031380075368876
      ],
      [
        "god",
        -10.031712771258654
      ],
      [
        "industr",
        -10.03246322986773
      ],
      [
        "garden",
        -10.032542339612746
      ],
      [
        "contract",
        -10.032598685542322
      ],
      [
        "agent",
        -10.032656985940045
      ],
      [
        "Province",
        -10.0333272064201
      ],
      [
        "Catholic",
        -10.033327209810306
      ],
      [
        "nose",
        -10.03386110823961
      ],
      [
        "za",
        -10.034577187107022
      ],
      [
        "performance",
        -10.03499255899045
      ],
      [
        "Anne",
        -10.035287695645398
      ],
      [
        "prison",
        -10.035631988097183
      ],
      [
        "yesterday",
        -10.037209629113057
      ],
      [
        "wine",
        -10.03744683251138
      ],
      [
        "handle",
        -10.037453711981769
      ],
      [
        "walked",
        -10.037853375094034
      ],
      [
        "Thomas",
        -10.038057414907206
      ],
      [
        "Royal",
        -10.039122455647846
      ],
      [
        "ociety",
        -10.039157860733399
      ],
      [
        "quarter",
        -10.039938317915432
      ],
      [
        "angry",
        -10.040936927769557
      ],
      [
        "lack",
        -10.040995303765246
      ],
      [
        "taste",
        -10.042264177024837
      ],
      [
        "ancient",
        -10.042452790124521
      ],
      [
        "afternoon",
        -10.04357301831029
      ],
      [
        "method",
        -10.043976059122393
      ],
      [
        "lift",
        -10.04434507875235
      ],
      [
        "element",
        -10.047051067125308
      ],
      [
        "2020",
        -10.050846236729846
      ],
      [
        "farm",
        -10.051236251057635
      ],
      [
        "fault",
        -10.052027523906403
      ],
      [
        "necessary",
        -10.05273136001665
      ],
      [
        "surface",
        -10.053395056312237
      ],
      [
        "author",
        -10.055281754253077
      ],
      [
        "Hold",
        -10.056037035776615
      ],
      [
        "mission",
        -10.058880150995673
      ],
      [
        "minus",
        -10.058985419101935
      ],
      [
        "province",
        -10.059402298291278
      ],
      [
        "Another",
        -10.059597497718126
      ],
      [
        "ger",
        -10.060440650987672
      ],
      [
        "extra",
        -10.06077677786513
      ],
      [
        "log",
        -10.061507478316024
      ],
      [
        "ways",
        -10.062222423943371
      ],
      [
        "ze",
        -10.062330241189189
      ],
      [
        "rough",
        -10.062430968137157
      ],
      [
        "Canad",
        -10.062711937897951
      ],
      [
        "Once",
        -10.062950737292706
      ],
      [
        "bright",
        -10.063390377477864
      ],
      [
        "print",
        -10.063884709258517
      ],
      [
        "holding",
        -10.063954528610038
      ],
      [
        "80",
        -10.06424054379871
      ],
      [
        "reading",
        -10.064572697681161
      ],
      [
        "attempt",
        -10.06523352112951
      ],
      [
        "songs",
        -10.065235699993073
      ],
      [
        "depend",
        -10.065591016909146
      ],
      [
        "enemy",
        -10.066116135173827
      ],
      [
        "mass",
        -10.066127621667423
      ],
      [
        "hop",
        -10.066448225696858
      ],
      [
        "immediately",
        -10.067092035776609
      ],
      [
        "Keep",
        -10.067216414873108
      ],
      [
        "specific",
        -10.067923202970036
      ],
      [
        "Italy",
        -10.069476946888411
      ],
      [
        "Act",
        -10.06972593014217
      ],
      [
        "opening",
        -10.069763435207719
      ],
      [
        "flight",
        -10.070540428010867
      ],
      [
        "measure",
        -10.070851034590884
      ],
      [
        "mark",
        -10.071461786912039
      ],
      [
        "Congress",
        -10.071924825523531
      ],
      [
        "busy",
        -10.07321811617366
      ],
      [
        "shop",
        -10.073328178049085
      ],
      [
        "Does",
        -10.073891323602007
      ],
      [
        "Prince",
        -10.074825884207817
      ],
      [
        "lies",
        -10.074931780286892
      ],
      [
        "Cos",
        -10.075106535917794
      ],
      [
        "Ok",
        -10.075770549511486
      ],
      [
        "fund",
        -10.076924753856101
      ],
      [
        "forth",
        -10.079258392821021
      ],
      [
        "Hu",
        -10.08027865621325
      ],
      [
        "older",
        -10.080833556633035
      ],
      [
        "camera",
        -10.082060543783722
      ],
      [
        "benefit",
        -10.082991365237028
      ],
      [
        "earlier",
        -10.083004068078285
      ],
      [
        "Say",
        -10.083048846919969
      ],
      [
        "Doctor",
        -10.083229773161221
      ],
      [
        "anti",
        -10.08459536723101
      ],
      [
        "Championship",
        -10.084654252138415
      ],
      [
        "range",
        -10.0849169447742
      ],
      [
        "par",
        -10.084998029302575
      ],
      [
        "troop",
        -10.086305777023178
      ],
      [
        "arrived",
        -10.086418036731633
      ],
      [
        "coat",
        -10.086479117547427
      ],
      [
        "introduce",
        -10.086774174346747
      ],
      [
        "fighting",
        -10.08714381871295
      ],
      [
        "Mac",
        -10.087327935618234
      ],
      [
        "route",
        -10.087751035899839
      ],
      [
        "ending",
        -10.08779701304675
      ],
      [
        "lawyer",
        -10.087821126888254
      ],
      [
        "qui",
        -10.08819042893067
      ],
      [
        "Tri",
        -10.089008204192236
      ],
      [
        "70",
        -10.089072638205462
      ],
      [
        "grave",
        -10.089988755993822
      ],
      [
        "basket",
        -10.090976644234274
      ],
      [
        "Wow",
        -10.09104377514446
      ],
      [
        "ο",
        -10.092372811439688
      ],
      [
        "contact",
        -10.092617296576574
      ],
      [
        "network",
        -10.092656973482788
      ],
      [
        "concern",
        -10.093346375277273
      ],
      [
        "Never",
        -10.093453306926172
      ],
      [
        "highe",
        -10.093690237454698
      ],
      [
        "opinion",
        -10.09419006851219
      ],
      [
        "Alright",
        -10.095048049497866
      ],
      [
        "knowledge",
        -10.096199623243246
      ],
      [
        "Up",
        -10.097020241542815
      ],
      [
        "AT",
        -10.097351446375512
      ],
      [
        "sake",
        -10.099256425071928
      ],
      [
        "load",
        -10.09928074255601
      ],
      [
        "stock",
        -10.10030652608901
      ],
      [
        "Life",
        -10.102294240977187
      ],
      [
        "Mother",
        -10.102423089068978
      ],
      [
        "lovely",
        -10.102434777672045
      ],
      [
        "believed",
        -10.104606219528634
      ],
      [
        "pot",
        -10.104927679966552
      ],
      [
        "Greek",
        -10.105548235496709
      ],
      [
        "1980",
        -10.106364000337333
      ],
      [
        "According",
        -10.107144073830906
      ],
      [
        "kick",
        -10.109769282884006
      ],
      [
        "spring",
        -10.111577889821945
      ],
      [
        "Perhaps",
        -10.112046023813539
      ],
      [
        "ou",
        -10.112235399214402
      ],
      [
        "authorit",
        -10.112767154939068
      ],
      [
        "sounds",
        -10.112813495572881
      ],
      [
        "45",
        -10.113236026843364
      ],
      [
        "illy",
        -10.11324758517991
      ],
      [
        "Hall",
        -10.11347458573034
      ],
      [
        "yellow",
        -10.113723054873619
      ],
      [
        "policy",
        -10.116121222948504
      ],
      [
        "events",
        -10.117631180810065
      ],
      [
        "1990",
        -10.117863288892671
      ],
      [
        "bu",
        -10.118732498471543
      ],
      [
        "Ooh",
        -10.119032819796171
      ],
      [
        "average",
        -10.119392052060114
      ],
      [
        "Bye",
        -10.119395698060274
      ],
      [
        "mate",
        -10.120050826367095
      ],
      [
        "related",
        -10.120112340870733
      ],
      [
        "discuss",
        -10.120127668996652
      ],
      [
        "laid",
        -10.1201487209223
      ],
      [
        "states",
        -10.120592480430826
      ],
      [
        "letters",
        -10.121706963358704
      ],
      [
        "shape",
        -10.121913062212139
      ],
      [
        "gives",
        -10.122372213389664
      ],
      [
        "suffer",
        -10.122478647172882
      ],
      [
        "Kingdom",
        -10.123585654824723
      ],
      [
        "Li",
        -10.123894109173374
      ],
      [
        "paint",
        -10.124395678424037
      ],
      [
        "text",
        -10.12458631020592
      ],
      [
        "engineer",
        -10.124681045101777
      ],
      [
        "lad",
        -10.125365656240506
      ],
      [
        "recognize",
        -10.126291539406612
      ],
      [
        "Mike",
        -10.128045872137985
      ],
      [
        "pocket",
        -10.12856171264621
      ],
      [
        "constant",
        -10.128562970603895
      ],
      [
        "campaign",
        -10.130228353847144
      ],
      [
        "launch",
        -10.130229204413919
      ],
      [
        "Has",
        -10.130817856689411
      ],
      [
        "ight",
        -10.131372442557087
      ],
      [
        "Tony",
        -10.13297782066854
      ],
      [
        "slow",
        -10.13365819404087
      ],
      [
        "birth",
        -10.13430616353682
      ],
      [
        "shire",
        -10.134804518813723
      ],
      [
        "advance",
        -10.136629257556933
      ],
      [
        "religious",
        -10.136922919455891
      ],
      [
        "Out",
        -10.137793013303902
      ],
      [
        "remove",
        -10.138260116582094
      ],
      [
        "unless",
        -10.138724570700129
      ],
      [
        "unit",
        -10.138993086270236
      ],
      [
        "forced",
        -10.13915042084582
      ],
      [
        "plane",
        -10.140059981536215
      ],
      [
        "rénée",
        -10.141975701279744
      ],
      [
        "fool",
        -10.141980405091292
      ],
      [
        "location",
        -10.142187808867584
      ],
      [
        "dirt",
        -10.143722997838404
      ],
      [
        "Under",
        -10.143929108691658
      ],
      [
        "fift",
        -10.144081435340137
      ],
      [
        "treat",
        -10.14429490364277
      ],
      [
        "iron",
        -10.145895780660823
      ],
      [
        "shoulder",
        -10.146757685461175
      ],
      [
        "Sam",
        -10.147076078910423
      ],
      [
        "32",
        -10.147599226728461
      ],
      [
        "pet",
        -10.147753031143083
      ],
      [
        "ium",
        -10.148555629339644
      ],
      [
        "speech",
        -10.148747458278356
      ],
      [
        "Atlantique",
        -10.148783948492113
      ],
      [
        "Rock",
        -10.148883210219722
      ],
      [
        "beyon",
        -10.149151214769233
      ],
      [
        "Time",
        -10.149546202477353
      ],
      [
        "active",
        -10.149597460777425
      ],
      [
        "legal",
        -10.150462843902861
      ],
      [
        "stars",
        -10.151023427941137
      ],
      [
        "broad",
        -10.151353428509019
      ],
      [
        "honor",
        -10.151430293441013
      ],
      [
        "droppe",
        -10.152148617544473
      ],
      [
        "bound",
        -10.15374228036615
      ],
      [
        "twic",
        -10.155601686510225
      ],
      [
        "Help",
        -10.15573838579434
      ],
      [
        "decide",
        -10.155743782065192
      ],
      [
        "choose",
        -10.155786239207252
      ],
      [
        "Old",
        -10.15589710204122
      ],
      [
        "Lake",
        -10.157024764302024
      ],
      [
        "winter",
        -10.157875058205697
      ],
      [
        "Make",
        -10.158041996797039
      ],
      [
        "mum",
        -10.158157798150567
      ],
      [
        "tuck",
        -10.159071026726858
      ],
      [
        "Toda",
        -10.15972177781085
      ],
      [
        "Nor",
        -10.159859853363887
      ],
      [
        "plays",
        -10.160008541525812
      ],
      [
        "Bay",
        -10.160413081216578
      ],
      [
        "pressure",
        -10.16077443707404
      ],
      [
        "lowly",
        -10.160779960498171
      ],
      [
        "jo",
        -10.160947045068518
      ],
      [
        "hey",
        -10.161999253580706
      ],
      [
        "growing",
        -10.162127084515625
      ],
      [
        "90",
        -10.162626370045068
      ],
      [
        "capture",
        -10.162662338934702
      ],
      [
        "native",
        -10.162963439924756
      ],
      [
        "grown",
        -10.165810119257472
      ],
      [
        "dangerous",
        -10.16598390007326
      ],
      [
        "Western",
        -10.168056388594138
      ],
      [
        "damage",
        -10.168563997570232
      ],
      [
        "AL",
        -10.169362579198992
      ],
      [
        "ST",
        -10.169770482629641
      ],
      [
        "negative",
        -10.170266518255495
      ],
      [
        "according",
        -10.17056730286659
      ],
      [
        "wearing",
        -10.170900452184698
      ],
      [
        "trick",
        -10.170955427739699
      ],
      [
        "gen",
        -10.170988918384644
      ],
      [
        "fruit",
        -10.171087180388064
      ],
      [
        "stream",
        -10.171101839450493
      ],
      [
        "develop",
        -10.172028827103755
      ],
      [
        "judge",
        -10.172713563410351
      ],
      [
        "Los",
        -10.173625870831618
      ],
      [
        "ical",
        -10.173719789257259
      ],
      [
        "credit",
        -10.174110404948724
      ],
      [
        "Show",
        -10.175070003980565
      ],
      [
        "Although",
        -10.175429326871797
      ],
      [
        "Sometimes",
        -10.175490932450954
      ],
      [
        "Little",
        -10.176331663827552
      ],
      [
        "Spanis",
        -10.177178131274061
      ],
      [
        "newspaper",
        -10.178351413446943
      ],
      [
        "moon",
        -10.178724857504719
      ],
      [
        "notice",
        -10.179888505540765
      ],
      [
        "securit",
        -10.180006678010916
      ],
      [
        "traditional",
        -10.180287933408756
      ],
      [
        "uty",
        -10.180436695098782
      ],
      [
        "accident",
        -10.180511321490737
      ],
      [
        "efore",
        -10.181221238523456
      ],
      [
        "competition",
        -10.181579099076567
      ],
      [
        "Mor",
        -10.182390215117692
      ],
      [
        "easily",
        -10.182724825450723
      ],
      [
        "ram",
        -10.182881540470193
      ],
      [
        "je",
        -10.182978515475975
      ],
      [
        "Chine",
        -10.183150410068349
      ],
      [
        "teach",
        -10.184344594936299
      ],
      [
        "currently",
        -10.184586671405425
      ],
      [
        "plain",
        -10.185016717075705
      ],
      [
        "Russian",
        -10.185517186779546
      ],
      [
        "boss",
        -10.18578880444019
      ],
      [
        "rush",
        -10.18619370874299
      ],
      [
        "Smith",
        -10.186945599851416
      ],
      [
        "Per",
        -10.187027915560018
      ],
      [
        "500",
        -10.188329372415456
      ],
      [
        "Council",
        -10.188609659035796
      ],
      [
        "Gu",
        -10.188680616949101
      ],
      [
        "Texa",
        -10.188743650229007
      ],
      [
        "guard",
        -10.189485149050117
      ],
      [
        "bread",
        -10.189799229394353
      ],
      [
        "hotel",
        -10.190386514256033
      ],
      [
        "victim",
        -10.190388545163913
      ],
      [
        "relative",
        -10.19040555406254
      ],
      [
        "tool",
        -10.191999168270439
      ],
      [
        "positive",
        -10.19215747875578
      ],
      [
        "flat",
        -10.192874053210506
      ],
      [
        "fashion",
        -10.19290420481571
      ],
      [
        "statement",
        -10.194872663351315
      ],
      [
        "electric",
        -10.194956016636114
      ],
      [
        "und",
        -10.195146260625013
      ],
      [
        "proud",
        -10.195803974054865
      ],
      [
        "inter",
        -10.196381488971575
      ],
      [
        "root",
        -10.197053818835556
      ],
      [
        "mess",
        -10.198146195525563
      ],
      [
        "crime",
        -10.198953099929003
      ],
      [
        "Martin",
        -10.199296997175745
      ],
      [
        "brown",
        -10.201128089695422
      ],
      [
        "disappear",
        -10.2016339925319
      ],
      [
        "Something",
        -10.201870392417757
      ],
      [
        "anywhere",
        -10.202894668682731
      ],
      [
        "wheel",
        -10.203010153400264
      ],
      [
        "bra",
        -10.203756957372075
      ],
      [
        "soldiers",
        -10.203933239306068
      ],
      [
        "significant",
        -10.206455681600819
      ],
      [
        "twelve",
        -10.206459354383918
      ],
      [
        "refer",
        -10.20662213886961
      ],
      [
        "planet",
        -10.206852235109672
      ],
      [
        "Gar",
        -10.207153488535447
      ],
      [
        "definitely",
        -10.20715662472048
      ],
      [
        "technolog",
        -10.207631005237078
      ],
      [
        "bottle",
        -10.208262693513994
      ],
      [
        "staff",
        -10.208288861562531
      ],
      [
        "desire",
        -10.2088742138688
      ],
      [
        "crowd",
        -10.20892402500255
      ],
      [
        "medicine",
        -10.210072026249865
      ],
      [
        "calm",
        -10.210460597173038
      ],
      [
        "mail",
        -10.21159510994477
      ],
      [
        "legs",
        -10.211715458222884
      ],
      [
        "weather",
        -10.21215345481476
      ],
      [
        "attend",
        -10.213079866428966
      ],
      [
        "source",
        -10.213214577794574
      ],
      [
        "Ch",
        -10.213528619142604
      ],
      [
        "solution",
        -10.214159530999265
      ],
      [
        "percent",
        -10.215318168122145
      ],
      [
        "BE",
        -10.21532899886558
      ],
      [
        "division",
        -10.21548050153791
      ],
      [
        "waste",
        -10.215917898163324
      ],
      [
        "Fine",
        -10.217610644594563
      ],
      [
        "scale",
        -10.218630619751153
      ],
      [
        "screen",
        -10.218739042563787
      ],
      [
        "central",
        -10.219160406440984
      ],
      [
        "DO",
        -10.219382047568441
      ],
      [
        "grant",
        -10.219686964747194
      ],
      [
        "Grand",
        -10.219926017884283
      ],
      [
        "bomb",
        -10.220093700232951
      ],
      [
        "ji",
        -10.220422142066639
      ],
      [
        "Association",
        -10.220961825006661
      ],
      [
        "ears",
        -10.221816011964606
      ],
      [
        "castle",
        -10.221873641689424
      ],
      [
        "hide",
        -10.221941050176397
      ],
      [
        "zero",
        -10.221967577076637
      ],
      [
        "beside",
        -10.223369032143687
      ],
      [
        "physical",
        -10.223450112174277
      ],
      [
        "Iran",
        -10.223540748903783
      ],
      [
        "wake",
        -10.223691338367836
      ],
      [
        "1970",
        -10.223753338160902
      ],
      [
        "folk",
        -10.22435755981511
      ],
      [
        "express",
        -10.226653743461574
      ],
      [
        "bitch",
        -10.227077791260957
      ],
      [
        "hello",
        -10.22758866289303
      ],
      [
        "brief",
        -10.228586430123732
      ],
      [
        "expected",
        -10.229077450559434
      ],
      [
        "!”",
        -10.229530108415105
      ],
      [
        "African",
        -10.229893446601384
      ],
      [
        "economic",
        -10.229933990931109
      ],
      [
        "pleasure",
        -10.230143074386316
      ],
      [
        "studio",
        -10.230214910366776
      ],
      [
        "guest",
        -10.231899167746006
      ],
      [
        "Next",
        -10.231999419290215
      ],
      [
        "wedding",
        -10.232029736927366
      ],
      [
        "loss",
        -10.232194338467625
      ],
      [
        "aged",
        -10.232409145412827
      ],
      [
        "berg",
        -10.232454450997201
      ],
      [
        "circle",
        -10.233013806291
      ],
      [
        "wor",
        -10.233176853466462
      ],
      [
        "Jackson",
        -10.234306740069977
      ],
      [
        "brand",
        -10.235341883192536
      ],
      [
        "resource",
        -10.23578136129445
      ],
      [
        "nce",
        -10.235816562229836
      ],
      [
        "ization",
        -10.235966765987321
      ],
      [
        "tax",
        -10.236181214015676
      ],
      [
        "36",
        -10.236416737536143
      ],
      [
        "drew",
        -10.236581843398042
      ],
      [
        "shore",
        -10.236788664480374
      ],
      [
        "smoke",
        -10.238236837790296
      ],
      [
        "Best",
        -10.238504635487732
      ],
      [
        "Ja",
        -10.239014633105771
      ],
      [
        "ideas",
        -10.239087500073525
      ],
      [
        "manager",
        -10.23922959496269
      ],
      [
        "leading",
        -10.239802962616519
      ],
      [
        "Four",
        -10.240607282828712
      ],
      [
        "uncle",
        -10.242564288873627
      ],
      [
        "Da",
        -10.244155887826615
      ],
      [
        "evil",
        -10.244706763159833
      ],
      [
        "ED",
        -10.246692829722825
      ],
      [
        "powerful",
        -10.24731136079814
      ],
      [
        "Line",
        -10.248381789579387
      ],
      [
        "Republic",
        -10.248414804272485
      ],
      [
        "metal",
        -10.24870295794815
      ],
      [
        "colour",
        -10.249223573922407
      ],
      [
        "fill",
        -10.249997554982091
      ],
      [
        "egg",
        -10.250382999456598
      ],
      [
        "strength",
        -10.25054681660557
      ],
      [
        "appearance",
        -10.250739533972151
      ],
      [
        "reache",
        -10.251053135225984
      ],
      [
        "shirt",
        -10.253097189110392
      ],
      [
        "forty",
        -10.253683566072759
      ],
      [
        "Chicago",
        -10.25439145279947
      ],
      [
        "maintain",
        -10.254419496282352
      ],
      [
        "joke",
        -10.255153327690614
      ],
      [
        "Both",
        -10.255352370515395
      ],
      [
        "Shut",
        -10.256096437127958
      ],
      [
        "sexual",
        -10.258212057756502
      ],
      [
        "prevent",
        -10.258218083753789
      ],
      [
        "filled",
        -10.258797521577382
      ],
      [
        "Nice",
        -10.259371007643923
      ],
      [
        "Spain",
        -10.260260769905454
      ],
      [
        "municipalit",
        -10.26072532071991
      ],
      [
        "Bill",
        -10.261191482841728
      ],
      [
        "ships",
        -10.261576331039816
      ],
      [
        "quality",
        -10.26163370537812
      ],
      [
        "heaven",
        -10.262009349469448
      ],
      [
        "medical",
        -10.26289220658898
      ],
      [
        "Ru",
        -10.263077528743969
      ],
      [
        "replie",
        -10.264345785178563
      ],
      [
        "partner",
        -10.264932125632043
      ],
      [
        "centre",
        -10.265071489663292
      ],
      [
        "Chief",
        -10.265809334316382
      ],
      [
        "signal",
        -10.266945895120827
      ],
      [
        "Che",
        -10.267285580274002
      ],
      [
        "Road",
        -10.267764518842863
      ],
      [
        "38",
        -10.268694724234269
      ],
      [
        "bow",
        -10.268826705615036
      ],
      [
        "awful",
        -10.2689763853685
      ],
      [
        "excuse",
        -10.269621486013566
      ],
      [
        "damn",
        -10.270088881663124
      ],
      [
        "grand",
        -10.27061280488267
      ],
      [
        "2021",
        -10.272565172757716
      ],
      [
        "Jane",
        -10.275527848816282
      ],
      [
        "Academ",
        -10.27552997775318
      ],
      [
        "ME",
        -10.275793980932399
      ],
      [
        "sold",
        -10.279122589416506
      ],
      [
        "deliver",
        -10.279770504289626
      ],
      [
        "ck",
        -10.28061466532419
      ],
      [
        "worried",
        -10.281321469183226
      ],
      [
        "Du",
        -10.281777703861803
      ],
      [
        "addition",
        -10.282314200477
      ],
      [
        "smart",
        -10.282546739098585
      ],
      [
        "Majest",
        -10.283144909440852
      ],
      [
        "trial",
        -10.283532580971496
      ],
      [
        "finger",
        -10.2836749794497
      ],
      [
        "yard",
        -10.284341675865928
      ],
      [
        "Lady",
        -10.284856313951554
      ],
      [
        "lucky",
        -10.285238477429644
      ],
      [
        "switch",
        -10.285762354714269
      ],
      [
        "avoid",
        -10.286563410768897
      ],
      [
        "southwestern",
        -10.287088977020902
      ],
      [
        "aware",
        -10.288272103810453
      ],
      [
        "killing",
        -10.29018780002422
      ],
      [
        "Christmas",
        -10.290946941325688
      ],
      [
        "roof",
        -10.291150393301276
      ],
      [
        "bath",
        -10.29163804161216
      ],
      [
        "Open",
        -10.291649622380453
      ],
      [
        "á",
        -10.29289871927866
      ],
      [
        "teeth",
        -10.292937312778278
      ],
      [
        "empty",
        -10.292950963673087
      ],
      [
        "reveal",
        -10.293006385596625
      ],
      [
        "consist",
        -10.293760470899375
      ],
      [
        "Long",
        -10.294648649171872
      ],
      [
        "dogs",
        -10.295200305131674
      ],
      [
        "prove",
        -10.295628405795544
      ],
      [
        "Sha",
        -10.295987422745366
      ],
      [
        "totally",
        -10.296263301853873
      ],
      [
        "adult",
        -10.296827986091186
      ],
      [
        "manner",
        -10.297377356475012
      ],
      [
        "novel",
        -10.29744360365201
      ],
      [
        "request",
        -10.297754016445218
      ],
      [
        "rage",
        -10.29897299391499
      ],
      [
        "Men",
        -10.299614069801866
      ],
      [
        "challenge",
        -10.29981553644824
      ],
      [
        "Princess",
        -10.301086472829388
      ],
      [
        "Huh",
        -10.301308531312774
      ],
      [
        "refuse",
        -10.30161759067448
      ],
      [
        "placed",
        -10.30247555064565
      ],
      [
        "companie",
        -10.302734063783372
      ],
      [
        "lord",
        -10.302820306897878
      ],
      [
        "eggs",
        -10.3031742111208
      ],
      [
        "LE",
        -10.303209913423268
      ],
      [
        "Mel",
        -10.303770691346177
      ],
      [
        "witch",
        -10.30443409032004
      ],
      [
        "Port",
        -10.306799877494257
      ],
      [
        "surprise",
        -10.308209855515878
      ],
      [
        "civil",
        -10.308564849745217
      ],
      [
        "complex",
        -10.308723774202482
      ],
      [
        "Brown",
        -10.308742282947474
      ],
      [
        "worker",
        -10.309514091051202
      ],
      [
        "ang",
        -10.309743168702326
      ],
      [
        "article",
        -10.309853948018217
      ],
      [
        "split",
        -10.310171072622854
      ],
      [
        "Qu",
        -10.310401005944922
      ],
      [
        "platform",
        -10.31071800022374
      ],
      [
        "Republican",
        -10.313598413972699
      ],
      [
        "danger",
        -10.31372738795831
      ],
      [
        "iding",
        -10.314114074392144
      ],
      [
        "Pat",
        -10.314179187467083
      ],
      [
        "border",
        -10.314235056149233
      ],
      [
        "breath",
        -10.314321446479454
      ],
      [
        "Blue",
        -10.31443268397728
      ],
      [
        "directly",
        -10.314529262395304
      ],
      [
        "pool",
        -10.315373205678643
      ],
      [
        "Major",
        -10.315499627806334
      ],
      [
        "aunt",
        -10.31612846040544
      ],
      [
        "1999",
        -10.316438481918361
      ],
      [
        "replaced",
        -10.316850280817864
      ],
      [
        "map",
        -10.318527733741831
      ],
      [
        "ence",
        -10.31888511401673
      ],
      [
        "weird",
        -10.31890745083014
      ],
      [
        "stole",
        -10.319099381544643
      ],
      [
        "reported",
        -10.319425906997596
      ],
      [
        "Later",
        -10.319642502061754
      ],
      [
        "interview",
        -10.319759482049914
      ],
      [
        "nic",
        -10.320180066215595
      ],
      [
        "approach",
        -10.320240929583026
      ],
      [
        "schools",
        -10.320451139954702
      ],
      [
        "temperature",
        -10.32075728628034
      ],
      [
        "lake",
        -10.321213034724575
      ],
      [
        "pictures",
        -10.321528916083878
      ],
      [
        "Club",
        -10.322074851163498
      ],
      [
        "ric",
        -10.323689177309639
      ],
      [
        "effective",
        -10.325041002993359
      ],
      [
        "MAN",
        -10.325525229889731
      ],
      [
        "survive",
        -10.325809861632234
      ],
      [
        "operate",
        -10.32584252123294
      ],
      [
        "priest",
        -10.326842503951877
      ],
      [
        "elling",
        -10.327158452750371
      ],
      [
        "ward",
        -10.327604260004128
      ],
      [
        "palace",
        -10.328886446841853
      ],
      [
        "eventually",
        -10.329025339539228
      ],
      [
        "Sunday",
        -10.329826514525474
      ],
      [
        "Scott",
        -10.329951325357099
      ],
      [
        "male",
        -10.33167451054278
      ],
      [
        "bell",
        -10.332285362221086
      ],
      [
        "collection",
        -10.333063439761911
      ],
      [
        "Leave",
        -10.334204137889516
      ],
      [
        "kitchen",
        -10.335010498287456
      ],
      [
        "Pa",
        -10.335326574298648
      ],
      [
        "39",
        -10.335637049621358
      ],
      [
        "Rose",
        -10.335864788137702
      ],
      [
        "SE",
        -10.336260923759458
      ],
      [
        "meat",
        -10.336436898702823
      ],
      [
        "Lu",
        -10.336916814364582
      ],
      [
        "establish",
        -10.337177198407488
      ],
      [
        "Girl",
        -10.337273169516237
      ],
      [
        "occur",
        -10.33933384162259
      ],
      [
        "clearly",
        -10.340388237808234
      ],
      [
        "Government",
        -10.34114499616992
      ],
      [
        "steal",
        -10.341303395327387
      ],
      [
        "cash",
        -10.341731758683176
      ],
      [
        "Young",
        -10.342354833310086
      ],
      [
        "painting",
        -10.342719481259042
      ],
      [
        "actress",
        -10.343854247761328
      ],
      [
        "actual",
        -10.344123291981774
      ],
      [
        "journey",
        -10.345272934952668
      ],
      [
        "audience",
        -10.345272943682142
      ],
      [
        "frog",
        -10.346144559584001
      ],
      [
        "ile",
        -10.346251251929095
      ],
      [
        "concerned",
        -10.346356568084847
      ],
      [
        "slight",
        -10.346417168202517
      ],
      [
        "Still",
        -10.347057375470012
      ],
      [
        "Norman",
        -10.347160041615993
      ],
      [
        "‘",
        -10.34734332594277
      ],
      [
        "northern",
        -10.347401925970221
      ],
      [
        "pur",
        -10.347456958328848
      ],
      [
        "silver",
        -10.347479815027686
      ],
      [
        "therefor",
        -10.348538599116749
      ],
      [
        "Ray",
        -10.348649574259838
      ],
      [
        "string",
        -10.349379443840805
      ],
      [
        "via",
        -10.349394457998505
      ],
      [
        "asier",
        -10.350157270013561
      ],
      [
        "Ku",
        -10.351232173614449
      ],
      [
        "Indiana",
        -10.3512428245472
      ],
      [
        "foreign",
        -10.351290101076858
      ],
      [
        "département",
        -10.351497016837188
      ],
      [
        "device",
        -10.351586751718227
      ],
      [
        "prepared",
        -10.351700877472158
      ],
      [
        "1960",
        -10.352697845955271
      ],
      [
        "Pre",
        -10.352707195120585
      ],
      [
        "universe",
        -10.353594624633345
      ],
      [
        "prince",
        -10.353855097941583
      ],
      [
        "pack",
        -10.354045884764808
      ],
      [
        "missed",
        -10.354560499534829
      ],
      [
        "conversation",
        -10.355668034490172
      ],
      [
        "crash",
        -10.35596406279219
      ],
      [
        "breakfast",
        -10.355968215370288
      ],
      [
        "target",
        -10.355981004273183
      ],
      [
        "western",
        -10.356180756021066
      ],
      [
        "33",
        -10.356368482207312
      ],
      [
        "Uncle",
        -10.357761639493326
      ],
      [
        "Sal",
        -10.357843808182727
      ],
      [
        "climb",
        -10.358233684445565
      ],
      [
        "Each",
        -10.358304801632942
      ],
      [
        "crying",
        -10.358310634616316
      ],
      [
        "37",
        -10.358835685742527
      ],
      [
        "34",
        -10.360398815988273
      ],
      [
        "burie",
        -10.360998319459394
      ],
      [
        "becoming",
        -10.362142183513999
      ],
      [
        "64",
        -10.362197492349457
      ],
      [
        "broadcast",
        -10.36224430900226
      ],
      [
        "dreams",
        -10.36248295873628
      ],
      [
        "chain",
        -10.363221601537386
      ],
      [
        "independent",
        -10.363523044422383
      ],
      [
        "cow",
        -10.363536404460316
      ],
      [
        "Law",
        -10.364261716659321
      ],
      [
        "cake",
        -10.364305700827583
      ],
      [
        "button",
        -10.364461753757498
      ],
      [
        "impossibl",
        -10.364971121930452
      ],
      [
        "giant",
        -10.366192613554102
      ],
      [
        "190",
        -10.366668417057744
      ],
      [
        "Soviet",
        -10.36829269374775
      ],
      [
        "hurry",
        -10.368784576599879
      ],
      [
        "Harr",
        -10.36952292801948
      ],
      [
        "lunch",
        -10.369529537889077
      ],
      [
        "uses",
        -10.369674750775852
      ],
      [
        "blind",
        -10.370412786791944
      ],
      [
        "construction",
        -10.370485332080689
      ],
      [
        "cancer",
        -10.370640852631018
      ],
      [
        "THAT",
        -10.373083034704951
      ],
      [
        "display",
        -10.37380271432761
      ],
      [
        "Super",
        -10.374397518190378
      ],
      [
        "sides",
        -10.374467849843295
      ],
      [
        "‎.",
        -10.374698000389788
      ],
      [
        "neither",
        -10.37542535159291
      ],
      [
        "reduce",
        -10.375520480606166
      ],
      [
        "poet",
        -10.379200021914055
      ],
      [
        "ong",
        -10.379645002342249
      ],
      [
        "operation",
        -10.379888239496566
      ],
      [
        "cop",
        -10.380868622675743
      ],
      [
        "gentlemen",
        -10.381275980470644
      ],
      [
        "origin",
        -10.381653547897592
      ],
      [
        "treatment",
        -10.383405381440305
      ],
      [
        "turning",
        -10.383926997379987
      ],
      [
        "ungry",
        -10.383987491907046
      ],
      [
        "Mexic",
        -10.384809834102285
      ],
      [
        "feed",
        -10.384998313479784
      ],
      [
        "Women",
        -10.38542041368273
      ],
      [
        "Call",
        -10.385460447957982
      ],
      [
        "remind",
        -10.38617623649531
      ],
      [
        "leaves",
        -10.387061199615044
      ],
      [
        "Ex",
        -10.387098831491258
      ],
      [
        "learning",
        -10.387348996435282
      ],
      [
        "Music",
        -10.387372198052844
      ],
      [
        "creature",
        -10.387517955135237
      ],
      [
        "een",
        -10.387724557712538
      ],
      [
        "Iowa",
        -10.387950818592621
      ],
      [
        "worst",
        -10.389269079393642
      ],
      [
        "ailed",
        -10.389338010380829
      ],
      [
        "Col",
        -10.389657221483976
      ],
      [
        "drama",
        -10.389669563022863
      ],
      [
        "belief",
        -10.389711658841124
      ],
      [
        "afterward",
        -10.390312182315714
      ],
      [
        "Als",
        -10.390777043182581
      ],
      [
        "faith",
        -10.391799660200842
      ],
      [
        "Empire",
        -10.391842177455182
      ],
      [
        "Professor",
        -10.391842183586427
      ],
      [
        "Football",
        -10.391869169927144
      ],
      [
        "generation",
        -10.391996000323918
      ],
      [
        "surprised",
        -10.392397582494935
      ],
      [
        "soldier",
        -10.392754928934384
      ],
      [
        "grade",
        -10.393678731475454
      ],
      [
        "seek",
        -10.394041031223207
      ],
      [
        "chicken",
        -10.394043470253871
      ],
      [
        "greater",
        -10.39422435396851
      ],
      [
        "shoes",
        -10.39513914698089
      ],
      [
        "pie",
        -10.395404162655275
      ],
      [
        "cur",
        -10.395776274024943
      ],
      [
        "sentence",
        -10.39613217989452
      ],
      [
        "conduct",
        -10.396177914858143
      ],
      [
        "Prime",
        -10.39770844150866
      ],
      [
        "ped",
        -10.398400795846655
      ],
      [
        "favorite",
        -10.398440919067166
      ],
      [
        "listening",
        -10.398447178873948
      ],
      [
        "victor",
        -10.398513871493545
      ],
      [
        "Cause",
        -10.399091189147788
      ],
      [
        "ible",
        -10.400554961883946
      ],
      [
        "reaction",
        -10.401005088524816
      ],
      [
        "strike",
        -10.402753305017686
      ],
      [
        "duck",
        -10.402758171915512
      ],
      [
        "tip",
        -10.403294257729044
      ],
      [
        "types",
        -10.403540047678181
      ],
      [
        "teaching",
        -10.403593618158721
      ],
      [
        "knee",
        -10.40393867216791
      ],
      [
        "qua",
        -10.404218980790583
      ],
      [
        "recently",
        -10.405619439959313
      ],
      [
        "Down",
        -10.405662839757744
      ],
      [
        "beaut",
        -10.406511048260887
      ],
      [
        "Second",
        -10.407126879720714
      ],
      [
        "Daniel",
        -10.407139015363654
      ],
      [
        "suspect",
        -10.407147205930885
      ],
      [
        "Remember",
        -10.407688185434994
      ],
      [
        "Far",
        -10.408615263328773
      ],
      [
        "Hans",
        -10.409026658389129
      ],
      [
        "bid",
        -10.409547786813661
      ],
      [
        "Anyway",
        -10.409738720691212
      ],
      [
        "Bat",
        -10.410019170823531
      ],
      [
        "Bal",
        -10.410076083664174
      ],
      [
        "ladies",
        -10.410246402225766
      ],
      [
        "compete",
        -10.4103093478931
      ],
      [
        "drunk",
        -10.411511295710625
      ],
      [
        "succeed",
        -10.41154259743817
      ],
      [
        "multiple",
        -10.411555374995093
      ],
      [
        "appointed",
        -10.412193791444587
      ],
      [
        "financial",
        -10.413748848804119
      ],
      [
        "kingdom",
        -10.413751672494794
      ],
      [
        "shift",
        -10.415967763392484
      ],
      [
        "Mu",
        -10.416230372924066
      ],
      [
        "comment",
        -10.416430490260662
      ],
      [
        "initial",
        -10.416615283531147
      ],
      [
        "app",
        -10.417550695770164
      ],
      [
        "angle",
        -10.417781812642808
      ],
      [
        "Pope",
        -10.417929868583073
      ],
      [
        "graduate",
        -10.418118191787606
      ],
      [
        "Sch",
        -10.418906188601408
      ],
      [
        "grass",
        -10.41964606140766
      ],
      [
        "holiday",
        -10.422653650668558
      ],
      [
        "beach",
        -10.423274523411603
      ],
      [
        "names",
        -10.424185073121407
      ],
      [
        "1998",
        -10.42432867701136
      ],
      [
        "environment",
        -10.424524980699449
      ],
      [
        "tournament",
        -10.424884875739043
      ],
      [
        "ticket",
        -10.424980705272617
      ],
      [
        "connection",
        -10.42501044473034
      ],
      [
        "winning",
        -10.425013959276546
      ],
      [
        "Everybody",
        -10.425636670432239
      ],
      [
        "verse",
        -10.425939015955324
      ],
      [
        "tur",
        -10.426585291330515
      ],
      [
        "sleeping",
        -10.426635353875888
      ],
      [
        "Center",
        -10.427082337564162
      ],
      [
        "council",
        -10.4271226507927
      ],
      [
        "amazing",
        -10.427128503358183
      ],
      [
        "lected",
        -10.427175170912868
      ],
      [
        "shock",
        -10.427184897087699
      ],
      [
        "Jud",
        -10.427787952252856
      ],
      [
        "vision",
        -10.42847632418117
      ],
      [
        "sharp",
        -10.42888515577685
      ],
      [
        "noise",
        -10.430695644728775
      ],
      [
        "symbol",
        -10.430943410375338
      ],
      [
        "az",
        -10.431447859123729
      ],
      [
        "finding",
        -10.432637697236835
      ],
      [
        "officers",
        -10.43297711590492
      ],
      [
        "servant",
        -10.433046183843983
      ],
      [
        "declare",
        -10.433588419589721
      ],
      [
        "magazine",
        -10.433883751671829
      ],
      [
        "threw",
        -10.433919555773592
      ],
      [
        "imp",
        -10.434081679814646
      ],
      [
        "Company",
        -10.4342076644999
      ],
      [
        "rail",
        -10.43456954842378
      ],
      [
        "shake",
        -10.435282669938504
      ],
      [
        "teams",
        -10.435365380041247
      ],
      [
        "brave",
        -10.436947890724575
      ],
      [
        "flash",
        -10.437857787330678
      ],
      [
        "Carter",
        -10.438498748554679
      ],
      [
        "goal",
        -10.438844786589264
      ],
      [
        "lion",
        -10.439629770128128
      ],
      [
        "railway",
        -10.439872491554034
      ],
      [
        "Bur",
        -10.440049443258085
      ],
      [
        "Asia",
        -10.440085790088911
      ],
      [
        "option",
        -10.440934605060125
      ],
      [
        "Bell",
        -10.441743198348473
      ],
      [
        "responsibl",
        -10.442964400574795
      ],
      [
        "throat",
        -10.442964587192932
      ],
      [
        "Actually",
        -10.4429646976339
      ],
      [
        "commercial",
        -10.442985135044381
      ],
      [
        "lips",
        -10.44344142360504
      ],
      [
        "LY",
        -10.443692251580934
      ],
      [
        "sail",
        -10.444450320391486
      ],
      [
        "Wood",
        -10.445265627389704
      ],
      [
        "Saturday",
        -10.445339347242452
      ],
      [
        "union",
        -10.446204356523495
      ],
      [
        "drug",
        -10.446277394357438
      ],
      [
        "pattern",
        -10.44753783961109
      ],
      [
        "loose",
        -10.447550709620982
      ],
      [
        "Th",
        -10.448088606672362
      ],
      [
        "pure",
        -10.448826535095321
      ],
      [
        "val",
        -10.449096197223856
      ],
      [
        "neat",
        -10.449188692720643
      ],
      [
        "blame",
        -10.450519598430446
      ],
      [
        "rent",
        -10.451081490030305
      ],
      [
        "Cal",
        -10.451196085578438
      ],
      [
        "photo",
        -10.451209487066063
      ],
      [
        "gay",
        -10.451450390955035
      ],
      [
        "owner",
        -10.451553123029115
      ],
      [
        "sports",
        -10.452109107668107
      ],
      [
        "Service",
        -10.452130951129408
      ],
      [
        "Think",
        -10.452200726338159
      ],
      [
        "planning",
        -10.452271552016182
      ],
      [
        "Maria",
        -10.452814650966722
      ],
      [
        "Again",
        -10.454269780986612
      ],
      [
        "solve",
        -10.45432770042527
      ],
      [
        "league",
        -10.454410465041446
      ],
      [
        "possibl",
        -10.454572571685524
      ],
      [
        "AS",
        -10.454655908611334
      ],
      [
        "Main",
        -10.454749340054143
      ],
      [
        "UK",
        -10.456009481538834
      ],
      [
        "Stay",
        -10.456365603779796
      ],
      [
        "client",
        -10.456742538028983
      ],
      [
        "channel",
        -10.456744528108732
      ],
      [
        "stretch",
        -10.45674553722887
      ],
      [
        "import",
        -10.456974581949893
      ],
      [
        "Add",
        -10.4570023021482
      ],
      [
        "ture",
        -10.457860899370186
      ],
      [
        "quit",
        -10.457984926263233
      ],
      [
        "bodies",
        -10.458172316861683
      ],
      [
        "promised",
        -10.458427611163042
      ],
      [
        "Ver",
        -10.458506000693086
      ],
      [
        "Ten",
        -10.45853145717831
      ],
      [
        "argument",
        -10.459056834037753
      ],
      [
        "youth",
        -10.459428296373027
      ],
      [
        "tough",
        -10.46152204609656
      ],
      [
        "pirate",
        -10.462732760171585
      ],
      [
        "favor",
        -10.46276331754927
      ],
      [
        "pal",
        -10.463592130541242
      ],
      [
        "Last",
        -10.464348869847814
      ],
      [
        "Latin",
        -10.464486042255022
      ],
      [
        "NA",
        -10.464756726922317
      ],
      [
        "dragon",
        -10.46516677773203
      ],
      [
        "Watch",
        -10.466260076187268
      ],
      [
        "cheap",
        -10.466528384247894
      ],
      [
        "producer",
        -10.466685062065771
      ],
      [
        "brothers",
        -10.466951662792422
      ],
      [
        "Cha",
        -10.46729413325468
      ],
      [
        "Sun",
        -10.468140495319048
      ],
      [
        "Canadian",
        -10.468393091747418
      ],
      [
        "prize",
        -10.468401518225896
      ],
      [
        "avi",
        -10.468911083938949
      ],
      [
        "losing",
        -10.469367292563057
      ],
      [
        "hir",
        -10.46956100251402
      ],
      [
        "meal",
        -10.46967384114707
      ],
      [
        "toward",
        -10.469861075307403
      ],
      [
        "concert",
        -10.470718199666056
      ],
      [
        "Friday",
        -10.47088326635366
      ],
      [
        "pan",
        -10.47220352406157
      ],
      [
        "ocean",
        -10.473074109399871
      ],
      [
        "Kennedy",
        -10.473074977783295
      ],
      [
        "southern",
        -10.473150645569659
      ],
      [
        "Angele",
        -10.473315906177877
      ],
      [
        "AD",
        -10.473457443805675
      ],
      [
        "propose",
        -10.473873140356847
      ],
      [
        "lots",
        -10.474358352949237
      ],
      [
        "file",
        -10.474962687397236
      ],
      [
        "cars",
        -10.475071665994175
      ],
      [
        "jury",
        -10.475390703263901
      ],
      [
        "Division",
        -10.47547324474926
      ],
      [
        "horses",
        -10.477586738140353
      ],
      [
        "chocolate",
        -10.47777068118734
      ],
      [
        "Ge",
        -10.478576415232027
      ],
      [
        "committee",
        -10.480135580725936
      ],
      [
        "application",
        -10.48013650239008
      ],
      [
        "silence",
        -10.480137031895717
      ],
      [
        "AM",
        -10.480318969556667
      ],
      [
        "Summer",
        -10.480358015643585
      ],
      [
        "fur",
        -10.480621075616789
      ],
      [
        "angel",
        -10.480978991918512
      ],
      [
        "nineteen",
        -10.482530987485305
      ],
      [
        "typical",
        -10.482857195820293
      ],
      [
        "spoken",
        -10.483043355316614
      ],
      [
        "drawing",
        -10.484076849717042
      ],
      [
        "utter",
        -10.484215318945878
      ],
      [
        "managed",
        -10.48505614635117
      ],
      [
        "greed",
        -10.485557909654444
      ],
      [
        "dish",
        -10.485757565709548
      ],
      [
        "select",
        -10.485954334308667
      ],
      [
        "prime",
        -10.487021890175903
      ],
      [
        "Brita",
        -10.487832575407815
      ],
      [
        "afford",
        -10.488164512600978
      ],
      [
        "pig",
        -10.488927120218634
      ],
      [
        "forgot",
        -10.489076535449545
      ],
      [
        "assume",
        -10.489300840388848
      ],
      [
        "nest",
        -10.490640375910562
      ],
      [
        "Ke",
        -10.490813729004483
      ],
      [
        "instance",
        -10.491619357977514
      ],
      [
        "ology",
        -10.491844634533646
      ],
      [
        "proof",
        -10.492104453929283
      ],
      [
        "Damn",
        -10.493579177728828
      ],
      [
        "absolute",
        -10.493584007150098
      ],
      [
        "debut",
        -10.494110201219861
      ],
      [
        "Governor",
        -10.494406316135251
      ],
      [
        "fifth",
        -10.494739227048687
      ],
      [
        "admit",
        -10.494772804554385
      ],
      [
        "Susan",
        -10.494847143904042
      ],
      [
        "sweetie",
        -10.494893014410845
      ],
      [
        "moral",
        -10.494896001777295
      ],
      [
        "willing",
        -10.495070132360368
      ],
      [
        "Nav",
        -10.495180820308942
      ],
      [
        "eastern",
        -10.495504193717618
      ],
      [
        "ALL",
        -10.496589010230299
      ],
      [
        "hal",
        -10.496634311147023
      ],
      [
        "politic",
        -10.496698303134002
      ],
      [
        "Max",
        -10.497507369011828
      ],
      [
        "mix",
        -10.497944088633515
      ],
      [
        "gift",
        -10.497957924320055
      ],
      [
        "ple",
        -10.498635363905823
      ],
      [
        "scientist",
        -10.499251208788344
      ],
      [
        "queen",
        -10.499409536088502
      ],
      [
        "engage",
        -10.499608111734961
      ],
      [
        "absolutel",
        -10.500109781307797
      ],
      [
        "gather",
        -10.500535108898323
      ],
      [
        "fixed",
        -10.500638629782152
      ],
      [
        "izing",
        -10.500756546872351
      ],
      [
        "Rome",
        -10.500974118431184
      ],
      [
        "joy",
        -10.501148165643148
      ],
      [
        "advantage",
        -10.50157283041226
      ],
      [
        "expression",
        -10.501810700240028
      ],
      [
        "ility",
        -10.502068860272113
      ],
      [
        "Stan",
        -10.502872803365609
      ],
      [
        "Thu",
        -10.50449492573841
      ],
      [
        "stan",
        -10.505774660984471
      ],
      [
        "minister",
        -10.506280519409902
      ],
      [
        "Back",
        -10.506498139756975
      ],
      [
        "thick",
        -10.506572617007253
      ],
      [
        "practical",
        -10.507363575380458
      ],
      [
        "Nat",
        -10.507616049035846
      ],
      [
        "apple",
        -10.508201900417745
      ],
      [
        "Year",
        -10.508886490664421
      ],
      [
        "desert",
        -10.508962415305344
      ],
      [
        "settlement",
        -10.50905479074339
      ],
      [
        "craft",
        -10.509235715788865
      ],
      [
        "Pol",
        -10.509411245970998
      ],
      [
        "laws",
        -10.511106068280672
      ],
      [
        "chemical",
        -10.511388404450571
      ],
      [
        "argue",
        -10.51273088489721
      ],
      [
        "copy",
        -10.5130457977785
      ],
      [
        "dying",
        -10.51375957104906
      ],
      [
        "lecture",
        -10.513837954764295
      ],
      [
        "musician",
        -10.513931740647012
      ],
      [
        "killer",
        -10.514867152949645
      ],
      [
        "Scottis",
        -10.514997164821843
      ],
      [
        "prisoner",
        -10.51509261973752
      ],
      [
        "responsibilit",
        -10.516283242097781
      ],
      [
        "apparent",
        -10.516301778262903
      ],
      [
        "noticed",
        -10.516515096303767
      ],
      [
        "struck",
        -10.517213268428169
      ],
      [
        "item",
        -10.517263457065374
      ],
      [
        "aily",
        -10.517372678193903
      ],
      [
        "jail",
        -10.517432981020459
      ],
      [
        "falling",
        -10.518222091958911
      ],
      [
        "becomes",
        -10.518994440311277
      ],
      [
        "affair",
        -10.519000454293842
      ],
      [
        "driver",
        -10.519662105177442
      ],
      [
        "ghost",
        -10.520987254973818
      ],
      [
        "cent",
        -10.521108896556616
      ],
      [
        "opposite",
        -10.521222240706827
      ],
      [
        "hung",
        -10.521393860889338
      ],
      [
        "AR",
        -10.521969614845208
      ],
      [
        "reference",
        -10.522850496524203
      ],
      [
        "label",
        -10.52326201569775
      ],
      [
        "principle",
        -10.52367243454536
      ],
      [
        "pin",
        -10.523676077618475
      ],
      [
        "royal",
        -10.523679740488216
      ],
      [
        "Edward",
        -10.523679918384408
      ],
      [
        "Nick",
        -10.523931339163028
      ],
      [
        "ES",
        -10.52496909408228
      ],
      [
        "Chi",
        -10.525483340152945
      ],
      [
        "recent",
        -10.526144447247527
      ],
      [
        "Joseph",
        -10.526148746927493
      ],
      [
        "units",
        -10.527774000054023
      ],
      [
        "tru",
        -10.528161770937267
      ],
      [
        "rum",
        -10.528601353443367
      ],
      [
        "ü",
        -10.528609436026539
      ],
      [
        "aid",
        -10.528892157238097
      ],
      [
        "forever",
        -10.530019583385213
      ],
      [
        "sugar",
        -10.531118727187767
      ],
      [
        "uniform",
        -10.531242127028527
      ],
      [
        "pretend",
        -10.53178099781542
      ],
      [
        "understood",
        -10.532151179127712
      ],
      [
        "bother",
        -10.532301416075212
      ],
      [
        "response",
        -10.53361040967473
      ],
      [
        "connected",
        -10.534653350652984
      ],
      [
        "laughing",
        -10.534732634284556
      ],
      [
        "weak",
        -10.53489688122573
      ],
      [
        "ā",
        -10.534915098358043
      ],
      [
        "management",
        -10.535027805992897
      ],
      [
        "activit",
        -10.535443131497523
      ],
      [
        "establishe",
        -10.53575158379865
      ],
      [
        "achieve",
        -10.535828864799413
      ],
      [
        "Brother",
        -10.536158350940891
      ],
      [
        "Tommy",
        -10.536366056496895
      ],
      [
        "lights",
        -10.536909448017463
      ],
      [
        "spell",
        -10.537668752717462
      ],
      [
        "Russia",
        -10.538058872555737
      ],
      [
        "Should",
        -10.538619233507415
      ],
      [
        "appeal",
        -10.53862403950179
      ],
      [
        "core",
        -10.539143850075646
      ],
      [
        "mere",
        -10.539551216850054
      ],
      [
        "Secretar",
        -10.539716911175228
      ],
      [
        "corn",
        -10.539953160111658
      ],
      [
        "honour",
        -10.540876558638992
      ],
      [
        "Valley",
        -10.541288063298396
      ],
      [
        "Shit",
        -10.54141092692836
      ],
      [
        "Chris",
        -10.541542344668699
      ],
      [
        "protest",
        -10.54186582419607
      ],
      [
        "Group",
        -10.542092216882551
      ],
      [
        "Cat",
        -10.542827592037902
      ],
      [
        "hire",
        -10.543193081433497
      ],
      [
        "pleased",
        -10.543238654216532
      ],
      [
        "tongue",
        -10.543656890177266
      ],
      [
        "Dutch",
        -10.543713750023636
      ],
      [
        "march",
        -10.54432756591168
      ],
      [
        "historical",
        -10.54459981143026
      ],
      [
        "47",
        -10.545203422601755
      ],
      [
        "bastard",
        -10.546174924658118
      ],
      [
        "Record",
        -10.54627091660879
      ],
      [
        "afety",
        -10.546317104085599
      ],
      [
        "Force",
        -10.546572302980717
      ],
      [
        "rap",
        -10.547172677248032
      ],
      [
        "Final",
        -10.54810847778322
      ],
      [
        "rapid",
        -10.548765625683005
      ],
      [
        "Dadd",
        -10.548960469357738
      ],
      [
        "cu",
        -10.549008189687875
      ],
      [
        "75",
        -10.549631461456787
      ],
      [
        "harm",
        -10.549697173309323
      ],
      [
        "mental",
        -10.550218691169206
      ],
      [
        "forgive",
        -10.55148497686969
      ],
      [
        "Early",
        -10.551773064442777
      ],
      [
        "Aunt",
        -10.551849144935307
      ],
      [
        "gentleman",
        -10.551870086887666
      ],
      [
        "Pan",
        -10.551876531372429
      ],
      [
        "1992",
        -10.552739469097661
      ],
      [
        "tradition",
        -10.553096783646216
      ],
      [
        "Australian",
        -10.553309570868194
      ],
      [
        "vehicle",
        -10.553787657045335
      ],
      [
        "Muslim",
        -10.55378920838108
      ],
      [
        "breaking",
        -10.55422935823457
      ],
      [
        "occasion",
        -10.55424414310196
      ],
      [
        "CO",
        -10.555023160155915
      ],
      [
        "Koh",
        -10.55520244806274
      ],
      [
        "entirely",
        -10.555425889486676
      ],
      [
        "showing",
        -10.555454016656455
      ],
      [
        "critic",
        -10.555663418494355
      ],
      [
        "Ken",
        -10.555744288000906
      ],
      [
        "musical",
        -10.556869761494996
      ],
      [
        "define",
        -10.557411855116133
      ],
      [
        "reasons",
        -10.557679008428767
      ],
      [
        "ach",
        -10.559076421412623
      ],
      [
        "Holy",
        -10.559232903109063
      ],
      [
        "lam",
        -10.559655739718234
      ],
      [
        "variet",
        -10.56039558381762
      ],
      [
        "cycle",
        -10.560511032083639
      ],
      [
        "professor",
        -10.561460286031952
      ],
      [
        "frequent",
        -10.561460291651928
      ],
      [
        "knife",
        -10.56146032705071
      ],
      [
        "300",
        -10.561971860341064
      ],
      [
        "HO",
        -10.56198199092994
      ],
      [
        "Yu",
        -10.562469675408533
      ],
      [
        "HE",
        -10.563308191164316
      ],
      [
        "billion",
        -10.56368149843582
      ],
      [
        "Dave",
        -10.564510322485257
      ],
      [
        "profit",
        -10.565492814703799
      ],
      [
        "bro",
        -10.565938906917278
      ],
      [
        "cream",
        -10.565974814759564
      ],
      [
        "ix",
        -10.566083176697331
      ],
      [
        "salt",
        -10.566847160362299
      ],
      [
        "Adam",
        -10.566888931909356
      ],
      [
        "Bel",
        -10.567091167355326
      ],
      [
        "planne",
        -10.56720770942306
      ],
      [
        "ified",
        -10.567314106537713
      ],
      [
        "drugs",
        -10.567384486214326
      ],
      [
        "compare",
        -10.568238216248897
      ],
      [
        "referr",
        -10.56857507006881
      ],
      [
        "eaten",
        -10.570023778466851
      ],
      [
        "shin",
        -10.570347128058504
      ],
      [
        "manage",
        -10.57150329878857
      ],
      [
        "Parliament",
        -10.57153036369854
      ],
      [
        "Southern",
        -10.571889183480867
      ],
      [
        "Mountain",
        -10.571997026389262
      ],
      [
        "shooting",
        -10.573074567897509
      ],
      [
        "tower",
        -10.573360643450938
      ],
      [
        "Light",
        -10.574287534321114
      ],
      [
        "conscious",
        -10.574367605252316
      ],
      [
        "expensive",
        -10.574380355814307
      ],
      [
        "rice",
        -10.574648022100236
      ],
      [
        "cock",
        -10.57600703905544
      ],
      [
        "instrument",
        -10.576959062306777
      ],
      [
        "traffic",
        -10.576985457388759
      ],
      [
        "Didn",
        -10.577081522342858
      ],
      [
        "instant",
        -10.577244207841368
      ],
      [
        "pp",
        -10.577315749143624
      ],
      [
        "Rick",
        -10.577329849992548
      ],
      [
        "matche",
        -10.57821627016926
      ],
      [
        "Too",
        -10.57827814615007
      ],
      [
        "Home",
        -10.57844956915094
      ],
      [
        "hook",
        -10.578817626333201
      ],
      [
        "99",
        -10.579170004522108
      ],
      [
        "wings",
        -10.580252825221095
      ],
      [
        "tiny",
        -10.58048256459022
      ],
      [
        "affect",
        -10.581484868358228
      ],
      [
        "flag",
        -10.581854071355252
      ],
      [
        "collect",
        -10.58185571366085
      ],
      [
        "failure",
        -10.58225214528378
      ],
      [
        "Jean",
        -10.582416356851311
      ],
      [
        "budget",
        -10.58486447136756
      ],
      [
        "silent",
        -10.584958965527251
      ],
      [
        "Order",
        -10.584965974994224
      ],
      [
        "Par",
        -10.585066435276833
      ],
      [
        "DE",
        -10.585357119676656
      ],
      [
        "ale",
        -10.586305558008394
      ],
      [
        "useful",
        -10.586760980745831
      ],
      [
        "rocks",
        -10.587290865110088
      ],
      [
        "ike",
        -10.587297106157429
      ],
      [
        "streets",
        -10.587465945878304
      ],
      [
        "Art",
        -10.587893415581032
      ],
      [
        "ative",
        -10.588210121387133
      ],
      [
        "steps",
        -10.58838181710306
      ],
      [
        "trap",
        -10.588398543822526
      ],
      [
        "ski",
        -10.58914344070315
      ],
      [
        "counter",
        -10.589195460657697
      ],
      [
        "ington",
        -10.589542298128233
      ],
      [
        "conference",
        -10.59010813751924
      ],
      [
        "WE",
        -10.590349298708823
      ],
      [
        "faster",
        -10.59048845865615
      ],
      [
        "bang",
        -10.590500013504588
      ],
      [
        "Kansa",
        -10.590893828565289
      ],
      [
        "lic",
        -10.591191679487002
      ],
      [
        "Fire",
        -10.591651278535405
      ],
      [
        "everywhere",
        -10.592319042225702
      ],
      [
        "Fred",
        -10.592582267258141
      ],
      [
        "appreciate",
        -10.592619951944105
      ],
      [
        "cousin",
        -10.592988810453452
      ],
      [
        "Har",
        -10.594098276103033
      ],
      [
        "setting",
        -10.59414749349187
      ],
      [
        "upper",
        -10.595482086260844
      ],
      [
        "48",
        -10.596739760491339
      ],
      [
        "motion",
        -10.597219740792639
      ],
      [
        "cute",
        -10.597351901644686
      ],
      [
        "serving",
        -10.597600876700191
      ],
      [
        "fingers",
        -10.598579455957488
      ],
      [
        "hanging",
        -10.598697419964001
      ],
      [
        "status",
        -10.5992292505307
      ],
      [
        "Death",
        -10.600735359972942
      ],
      [
        "Gold",
        -10.600988520969647
      ],
      [
        "CH",
        -10.601113931382393
      ],
      [
        "EN",
        -10.601995490645155
      ],
      [
        "Film",
        -10.602080496758198
      ],
      [
        "construct",
        -10.603642773024927
      ],
      [
        "arrange",
        -10.603847341941652
      ],
      [
        "44",
        -10.604688010232717
      ],
      [
        "lesson",
        -10.605172515860641
      ],
      [
        "exchange",
        -10.6052338748116
      ],
      [
        "bubble",
        -10.605467009618
      ],
      [
        "territor",
        -10.606020308308947
      ],
      [
        "criminal",
        -10.606087163615472
      ],
      [
        "presence",
        -10.606090922294282
      ],
      [
        "Prize",
        -10.606131179434048
      ],
      [
        "ions",
        -10.606186439696401
      ],
      [
        "shout",
        -10.607124080392625
      ],
      [
        "bite",
        -10.607572206530499
      ],
      [
        "closer",
        -10.607835029806997
      ],
      [
        "pipe",
        -10.609280280231463
      ],
      [
        "Mari",
        -10.60939872442933
      ],
      [
        "Run",
        -10.61009592765724
      ],
      [
        "lover",
        -10.610657209411091
      ],
      [
        "cloud",
        -10.610810071041033
      ],
      [
        "witness",
        -10.611135127269485
      ],
      [
        "golden",
        -10.61171415109538
      ],
      [
        "progress",
        -10.611850341760036
      ],
      [
        "Val",
        -10.612079477000627
      ],
      [
        "Atlanti",
        -10.612814165971432
      ],
      [
        "+",
        -10.613887293267927
      ],
      [
        "Massachusetts",
        -10.614173380128474
      ],
      [
        "float",
        -10.614189877713162
      ],
      [
        "starr",
        -10.614532094809928
      ],
      [
        "narrow",
        -10.616277987201158
      ],
      [
        "extremely",
        -10.616331992857857
      ],
      [
        "189",
        -10.616770200517237
      ],
      [
        "passenger",
        -10.616883702743808
      ],
      [
        "Bee",
        -10.617293597996046
      ],
      [
        "Institute",
        -10.617296468801515
      ],
      [
        "sum",
        -10.617539205676401
      ],
      [
        "hearing",
        -10.618631293110566
      ],
      [
        "42",
        -10.618787521686567
      ],
      [
        "communication",
        -10.619602271086688
      ],
      [
        "frighten",
        -10.619612542871185
      ],
      [
        "secure",
        -10.621157443172164
      ],
      [
        "runs",
        -10.621463329932954
      ],
      [
        "weekend",
        -10.622179658289536
      ],
      [
        "Michigan",
        -10.62232561819199
      ],
      [
        "Pakistan",
        -10.622325707068477
      ],
      [
        "latter",
        -10.622346412303997
      ],
      [
        "fifteen",
        -10.622376567186691
      ],
      [
        "instruction",
        -10.62244689785563
      ],
      [
        "photograph",
        -10.622860057413195
      ],
      [
        "snake",
        -10.624332699676906
      ],
      [
        "bride",
        -10.62483895854152
      ],
      [
        "philosoph",
        -10.624989373594603
      ],
      [
        "restaurant",
        -10.625057838231157
      ],
      [
        "climate",
        -10.625062373151188
      ],
      [
        "Welcome",
        -10.625136635040075
      ],
      [
        "Mal",
        -10.625917049176703
      ],
      [
        "guilty",
        -10.626703354586393
      ],
      [
        "improve",
        -10.626926648756495
      ],
      [
        "ula",
        -10.62711263478799
      ],
      [
        "princess",
        -10.627454695708302
      ],
      [
        "balance",
        -10.627572718896774
      ],
      [
        "swear",
        -10.627681584063666
      ],
      [
        "Lou",
        -10.627694189420424
      ],
      [
        "cheese",
        -10.627812855008175
      ],
      [
        "FOR",
        -10.628039842652493
      ],
      [
        "severe",
        -10.628233544427236
      ],
      [
        "calls",
        -10.628396565962431
      ],
      [
        "connect",
        -10.629135286899185
      ],
      [
        "í",
        -10.629144184647323
      ],
      [
        "branch",
        -10.62956453889054
      ],
      [
        "promote",
        -10.629855342750972
      ],
      [
        "bab",
        -10.629874939463692
      ],
      [
        "laughter",
        -10.630093648193794
      ],
      [
        "crack",
        -10.63033070020616
      ],
      [
        "advice",
        -10.630769925302058
      ],
      [
        "Society",
        -10.631013929796833
      ],
      [
        "Hmm",
        -10.631018234581
      ],
      [
        "mill",
        -10.631519306819989
      ],
      [
        "mixed",
        -10.63153529657984
      ],
      [
        "Carolina",
        -10.631998696171483
      ],
      [
        "rac",
        -10.632482556866442
      ],
      [
        "stranger",
        -10.632534843409683
      ],
      [
        "tion",
        -10.632803117498039
      ],
      [
        "solid",
        -10.633310859679918
      ],
      [
        "Albert",
        -10.633418826571573
      ],
      [
        "Middle",
        -10.63343285999093
      ],
      [
        "northwest",
        -10.63445772798795
      ],
      [
        "passing",
        -10.635384461287035
      ],
      [
        "lab",
        -10.635384925505178
      ],
      [
        "experiment",
        -10.63575677029387
      ],
      [
        "elect",
        -10.6358142962938
      ],
      [
        "vessel",
        -10.63607772621314
      ],
      [
        "frame",
        -10.63611726792396
      ],
      [
        "Boston",
        -10.63619824767959
      ],
      [
        "motor",
        -10.636403420065456
      ],
      [
        "Try",
        -10.636617199779188
      ],
      [
        "Cap",
        -10.636759644100913
      ],
      [
        "Had",
        -10.636913086426027
      ],
      [
        "Carl",
        -10.63765274891998
      ],
      [
        "Emil",
        -10.638460718429334
      ],
      [
        "categor",
        -10.638833822305653
      ],
      [
        "federal",
        -10.638834591494165
      ],
      [
        "sheet",
        -10.638992378036967
      ],
      [
        "Water",
        -10.638994858463459
      ],
      [
        "wire",
        -10.639625063305502
      ],
      [
        "lept",
        -10.639801155812307
      ],
      [
        "Mum",
        -10.640121334084647
      ],
      [
        "Bre",
        -10.641427337551535
      ],
      [
        "bury",
        -10.641475122813386
      ],
      [
        "econom",
        -10.64241285741846
      ],
      [
        "lan",
        -10.642528394126247
      ],
      [
        "approve",
        -10.642684220726697
      ],
      [
        "sigh",
        -10.643039582328885
      ],
      [
        "walls",
        -10.643143003464928
      ],
      [
        "chart",
        -10.643152348836512
      ],
      [
        "graph",
        -10.644204402015433
      ],
      [
        "Department",
        -10.644395459424294
      ],
      [
        "anger",
        -10.644432067325571
      ],
      [
        "Sound",
        -10.645751839950425
      ],
      [
        "UN",
        -10.646879475800166
      ],
      [
        "ude",
        -10.646981672285127
      ],
      [
        "Senate",
        -10.647188767553065
      ],
      [
        "Ali",
        -10.64804698452582
      ],
      [
        "cro",
        -10.64883171480816
      ],
      [
        "ker",
        -10.648920886262445
      ],
      [
        "otherwise",
        -10.649027369659573
      ],
      [
        "bullet",
        -10.649505056521688
      ],
      [
        "champion",
        -10.649622885816534
      ],
      [
        "Alex",
        -10.649672732728224
      ],
      [
        "treated",
        -10.649962864214814
      ],
      [
        "expand",
        -10.650035698864105
      ],
      [
        "flew",
        -10.650135674657852
      ],
      [
        "Mon",
        -10.651507838207003
      ],
      [
        "Rob",
        -10.651743488374958
      ],
      [
        "combination",
        -10.652804563647669
      ],
      [
        "justice",
        -10.652837758849316
      ],
      [
        "volume",
        -10.652841020127202
      ],
      [
        "Ri",
        -10.65291199064913
      ],
      [
        "Turn",
        -10.653277263898545
      ],
      [
        "Han",
        -10.653399080455511
      ],
      [
        "background",
        -10.654228498235533
      ],
      [
        "reform",
        -10.654645351232997
      ],
      [
        "Nan",
        -10.655050781776087
      ],
      [
        "celebrate",
        -10.655159897039882
      ],
      [
        "Inter",
        -10.655784886633256
      ],
      [
        "rope",
        -10.656681648295312
      ],
      [
        "95",
        -10.658080783635747
      ],
      [
        "Ohio",
        -10.658360756452641
      ],
      [
        "Science",
        -10.658445502335244
      ],
      [
        "aki",
        -10.658466100464828
      ],
      [
        "gal",
        -10.659440212914411
      ],
      [
        "uff",
        -10.660447822004507
      ],
      [
        "ray",
        -10.660983364134028
      ],
      [
        "librar",
        -10.661257988892263
      ],
      [
        "Laugh",
        -10.661451682247696
      ],
      [
        "Night",
        -10.662050448782368
      ],
      [
        "Top",
        -10.662887470060896
      ],
      [
        "carbon",
        -10.663568733165542
      ],
      [
        "ruin",
        -10.664036353168864
      ],
      [
        "organize",
        -10.66408617973152
      ],
      [
        "mile",
        -10.664733306914734
      ],
      [
        "Ram",
        -10.665133549027743
      ],
      [
        "arrest",
        -10.665158281366631
      ],
      [
        "slide",
        -10.665883527044894
      ],
      [
        "upset",
        -10.666012747083904
      ],
      [
        "tend",
        -10.666352932146788
      ],
      [
        "aka",
        -10.666916131085896
      ],
      [
        "CE",
        -10.667130816059123
      ],
      [
        "Power",
        -10.6671710793322
      ],
      [
        "rising",
        -10.667913090359603
      ],
      [
        "jan",
        -10.668472233252228
      ],
      [
        "Pete",
        -10.669202249934742
      ],
      [
        "orange",
        -10.669630841652339
      ],
      [
        "struggle",
        -10.669815515852983
      ],
      [
        "possibilit",
        -10.66982052499811
      ],
      [
        "obtain",
        -10.669823263685629
      ],
      [
        "dancing",
        -10.669827680594217
      ],
      [
        "Exact",
        -10.66996061402633
      ],
      [
        "chest",
        -10.670576339418147
      ],
      [
        "turns",
        -10.67075020736896
      ],
      [
        "55",
        -10.670884505268656
      ],
      [
        "CHA",
        -10.67106215455775
      ],
      [
        "growth",
        -10.671151205706508
      ],
      [
        "mount",
        -10.671598127774887
      ],
      [
        "excited",
        -10.671874598139055
      ],
      [
        "Johnson",
        -10.672085643068591
      ],
      [
        "encourage",
        -10.672753675373418
      ],
      [
        "Mhm",
        -10.673603571697896
      ],
      [
        "perfectly",
        -10.673626100945317
      ],
      [
        "worship",
        -10.673653461925362
      ],
      [
        "Games",
        -10.674414688321747
      ],
      [
        "Asian",
        -10.674456256381898
      ],
      [
        "transport",
        -10.674730636771667
      ],
      [
        "Steve",
        -10.675276354329636
      ],
      [
        "critical",
        -10.67554531736198
      ],
      [
        "circumstance",
        -10.675561884047045
      ],
      [
        "Arthur",
        -10.675566851581955
      ],
      [
        "combine",
        -10.676605519016668
      ],
      [
        "changing",
        -10.676731285772764
      ],
      [
        "armed",
        -10.677463577000154
      ],
      [
        "unique",
        -10.678370440795245
      ],
      [
        "freedom",
        -10.678444615704983
      ],
      [
        "kin",
        -10.67957134739227
      ],
      [
        "bowl",
        -10.680018705334753
      ],
      [
        "governor",
        -10.680379020193783
      ],
      [
        "occurre",
        -10.680966936463864
      ],
      [
        "nervous",
        -10.681331465612367
      ],
      [
        "Senator",
        -10.681364486969834
      ],
      [
        "Kentuck",
        -10.681385915878653
      ],
      [
        "respond",
        -10.681417467136923
      ],
      [
        "Andrew",
        -10.681709214724634
      ],
      [
        "violence",
        -10.684230274348455
      ],
      [
        "piano",
        -10.684240179299465
      ],
      [
        "Kim",
        -10.684299983866746
      ],
      [
        "gang",
        -10.684802980908305
      ],
      [
        "Roll",
        -10.685883149029902
      ],
      [
        "pray",
        -10.686314159739167
      ],
      [
        "devil",
        -10.68636817745961
      ],
      [
        "dust",
        -10.68654235231785
      ],
      [
        "alcohol",
        -10.686865182432715
      ],
      [
        "Eric",
        -10.686869336240976
      ],
      [
        "familiar",
        -10.68713696231987
      ],
      [
        "Shakespeare",
        -10.687136972868366
      ],
      [
        "lung",
        -10.687154482091568
      ],
      [
        "dozen",
        -10.687195439135383
      ],
      [
        "Pacific",
        -10.687197952464931
      ],
      [
        "eleven",
        -10.687531989844437
      ],
      [
        "gilu",
        -10.687709721879203
      ],
      [
        "Count",
        -10.68780113279949
      ],
      [
        "vector",
        -10.687870160586492
      ],
      [
        "deck",
        -10.688926804575617
      ],
      [
        "Pennsylvania",
        -10.690052412800028
      ],
      [
        "Emperor",
        -10.690052456187278
      ],
      [
        "Van",
        -10.690447960834645
      ],
      [
        "medal",
        -10.69085994420087
      ],
      [
        "script",
        -10.690879278266303
      ],
      [
        "magic",
        -10.691152373883885
      ],
      [
        "Cross",
        -10.691288605528626
      ],
      [
        "Gra",
        -10.692350474244787
      ],
      [
        "heads",
        -10.692661073475858
      ],
      [
        "estimate",
        -10.692704654751978
      ],
      [
        "Olympics",
        -10.692705298132214
      ],
      [
        "drove",
        -10.693021135758798
      ],
      [
        "publish",
        -10.693438895874234
      ],
      [
        "PA",
        -10.693574910456386
      ],
      [
        "girlfriend",
        -10.693817056011675
      ],
      [
        "maid",
        -10.693881869486015
      ],
      [
        "marked",
        -10.69412758966102
      ],
      [
        "faces",
        -10.69457235880984
      ],
      [
        "majorit",
        -10.694686061958324
      ],
      [
        "basis",
        -10.694744112092858
      ],
      [
        "spare",
        -10.694996141944094
      ],
      [
        "coin",
        -10.695249319426885
      ],
      [
        "arrow",
        -10.69571395920808
      ],
      [
        "46",
        -10.6964349694464
      ],
      [
        "nurse",
        -10.69702515137692
      ],
      [
        "carrying",
        -10.69707371559233
      ],
      [
        "sport",
        -10.697347408860262
      ],
      [
        "jam",
        -10.697596113460268
      ],
      [
        "1950",
        -10.697962174427985
      ],
      [
        "col",
        -10.698192515456842
      ],
      [
        "column",
        -10.698852316859176
      ],
      [
        "Game",
        -10.698857373119521
      ],
      [
        "agreement",
        -10.699203463886027
      ],
      [
        "41",
        -10.699384847777004
      ],
      [
        "recording",
        -10.699735806721833
      ],
      [
        "shame",
        -10.700294168457742
      ],
      [
        "boom",
        -10.700739744463354
      ],
      [
        "pu",
        -10.701053834252265
      ],
      [
        "indicate",
        -10.701381186900413
      ],
      [
        "acid",
        -10.701474452242255
      ],
      [
        "Follow",
        -10.701817560247697
      ],
      [
        "Such",
        -10.70189447809543
      ],
      [
        "Hurry",
        -10.701905595149139
      ],
      [
        "apartment",
        -10.702036199598258
      ],
      [
        "plent",
        -10.702425871079573
      ],
      [
        "Williams",
        -10.70253130199086
      ],
      [
        "Wend",
        -10.702877870559321
      ],
      [
        "tears",
        -10.702967200498918
      ],
      [
        "involve",
        -10.703389184306676
      ],
      [
        "ping",
        -10.703984906505404
      ],
      [
        "facilit",
        -10.704071714293358
      ],
      [
        "task",
        -10.704754778239122
      ],
      [
        "protection",
        -10.70490837633754
      ],
      [
        "edition",
        -10.705111606353462
      ],
      [
        "Khan",
        -10.70564528238544
      ],
      [
        "tender",
        -10.70611481117127
      ],
      [
        "plate",
        -10.706306708391033
      ],
      [
        "Bull",
        -10.70641299755642
      ],
      [
        "understanding",
        -10.706658081586221
      ],
      [
        "Ju",
        -10.707110130313437
      ],
      [
        "Tar",
        -10.707441863491718
      ],
      [
        "rug",
        -10.707528971208834
      ],
      [
        "LL",
        -10.707723851374357
      ],
      [
        "museum",
        -10.707746525895839
      ],
      [
        "steel",
        -10.70775270450148
      ],
      [
        "Castle",
        -10.707839163159413
      ],
      [
        "Ireland",
        -10.708606399979285
      ],
      [
        "gra",
        -10.70876125515217
      ],
      [
        "elder",
        -10.709171767969213
      ],
      [
        "lap",
        -10.709390741975007
      ],
      [
        "hmm",
        -10.710186455615595
      ],
      [
        "concept",
        -10.710603681225141
      ],
      [
        "ceremon",
        -10.710633396192009
      ],
      [
        "fancy",
        -10.711749160380144
      ],
      [
        "Anna",
        -10.712559953444902
      ],
      [
        "invited",
        -10.713149055460327
      ],
      [
        "remembered",
        -10.713229942576016
      ],
      [
        "}",
        -10.713687173740983
      ],
      [
        "falle",
        -10.713756161785946
      ],
      [
        "comfortable",
        -10.71400368228721
      ],
      [
        "Mont",
        -10.714606582500583
      ],
      [
        "mal",
        -10.716532721539302
      ],
      [
        "comfort",
        -10.716584514017867
      ],
      [
        "Museum",
        -10.716684637878679
      ],
      [
        "convert",
        -10.716691240154553
      ],
      [
        "Jones",
        -10.717241094669163
      ],
      [
        "Shall",
        -10.717735288591552
      ],
      [
        "composer",
        -10.71807850218012
      ],
      [
        "oldes",
        -10.719251294126249
      ],
      [
        "tended",
        -10.719333495178551
      ],
      [
        "Civil",
        -10.719685722254713
      ],
      [
        "bunch",
        -10.71971687980939
      ],
      [
        "website",
        -10.719790150937053
      ],
      [
        "TH",
        -10.723071554616745
      ],
      [
        "Alice",
        -10.723265947373061
      ],
      [
        "impact",
        -10.723297569346027
      ],
      [
        "whisper",
        -10.724249454145617
      ],
      [
        "height",
        -10.724330851329057
      ],
      [
        "ninet",
        -10.724805920580051
      ],
      [
        "bri",
        -10.724856892105123
      ],
      [
        "sheep",
        -10.724907694262996
      ],
      [
        "primar",
        -10.725554799074706
      ],
      [
        "Lieutenant",
        -10.72571738830705
      ],
      [
        "Sidney",
        -10.725725779708062
      ],
      [
        "supply",
        -10.725730377819996
      ],
      [
        "potential",
        -10.725742963139744
      ],
      [
        "ordinary",
        -10.726293907391518
      ],
      [
        "crop",
        -10.727061642849712
      ],
      [
        "NE",
        -10.727110449755056
      ],
      [
        "dig",
        -10.727971724204608
      ],
      [
        "rang",
        -10.728520462506838
      ],
      [
        "boyfriend",
        -10.72889024851889
      ],
      [
        "gged",
        -10.729445513508198
      ],
      [
        "wealth",
        -10.729684595625525
      ],
      [
        "Constitution",
        -10.729872413640088
      ],
      [
        "Democrat",
        -10.730165898701266
      ],
      [
        "lNG",
        -10.731139087284355
      ],
      [
        "glance",
        -10.731197561242276
      ],
      [
        "annual",
        -10.7318019132145
      ],
      [
        "juice",
        -10.731976155442453
      ],
      [
        "var",
        -10.732381961697577
      ],
      [
        "ries",
        -10.732895407309663
      ],
      [
        "additional",
        -10.733066832258512
      ],
      [
        "SO",
        -10.733544982838257
      ],
      [
        "soil",
        -10.733933906526556
      ],
      [
        "Live",
        -10.733985536683283
      ],
      [
        "Sar",
        -10.734023456938278
      ],
      [
        "divorce",
        -10.734836824913046
      ],
      [
        "darling",
        -10.734852906445564
      ],
      [
        "HIS",
        -10.735702538000705
      ],
      [
        "Kong",
        -10.736471786964358
      ],
      [
        "1987",
        -10.737324933685224
      ],
      [
        "mama",
        -10.737562412362333
      ],
      [
        "{",
        -10.737894086120512
      ],
      [
        "idiot",
        -10.737898955890534
      ],
      [
        "Elizabeth",
        -10.73790673749138
      ],
      [
        "thin",
        -10.738055987270178
      ],
      [
        "unknown",
        -10.738079291730973
      ],
      [
        "weapon",
        -10.738121152294934
      ],
      [
        "guns",
        -10.738132556165315
      ],
      [
        "attract",
        -10.738140034121702
      ],
      [
        "suffering",
        -10.740053336185763
      ],
      [
        "NO",
        -10.740060125815074
      ],
      [
        "seal",
        -10.740087187274629
      ],
      [
        "observe",
        -10.740823152648785
      ],
      [
        "scientific",
        -10.74096157078322
      ],
      [
        "innocent",
[...]
